#include "magic_wand_model_data.h"


// We need to keep the data array aligned on some architectures.

#ifdef __has_attribute

#define HAVE_ATTRIBUTE(x) __has_attribute(x)

#else

#define HAVE_ATTRIBUTE(x) 0

#endif

#if HAVE_ATTRIBUTE(aligned) || (defined(__GNUC__) && !defined(__clang__))

#define DATA_ALIGN_ATTRIBUTE __attribute__((aligned(4)))

#else

#define DATA_ALIGN_ATTRIBUTE

#endif

const unsigned char g_magic_wand_model_data[]  = {
  0x1c, 0x00, 0x00, 0x00, 0x54, 0x46, 0x4c, 0x33, 0x14, 0x00, 0x20, 0x00,
  0x04, 0x00, 0x08, 0x00, 0x0c, 0x00, 0x10, 0x00, 0x14, 0x00, 0x00, 0x00,
  0x18, 0x00, 0x1c, 0x00, 0x14, 0x00, 0x00, 0x00, 0x03, 0x00, 0x00, 0x00,
  0x18, 0x00, 0x00, 0x00, 0x2c, 0x00, 0x00, 0x00, 0xd8, 0x00, 0x00, 0x00,
  0x2c, 0x00, 0x00, 0x00, 0x80, 0x00, 0x00, 0x00, 0x78, 0x00, 0x00, 0x00,
  0x05, 0x00, 0x00, 0x00, 0x28, 0x07, 0x00, 0x00, 0x44, 0x06, 0x00, 0x00,
  0xbc, 0x03, 0x00, 0x00, 0xf8, 0x02, 0x00, 0x00, 0xac, 0x01, 0x00, 0x00,
  0x01, 0x00, 0x00, 0x00, 0xd0, 0x00, 0x00, 0x00, 0x14, 0x00, 0x00, 0x00,
  0x98, 0x32, 0x00, 0x00, 0x94, 0x32, 0x00, 0x00, 0x8c, 0x31, 0x00, 0x00,
  0xd8, 0x30, 0x00, 0x00, 0x30, 0x30, 0x00, 0x00, 0xbc, 0x2f, 0x00, 0x00,
  0x50, 0x2f, 0x00, 0x00, 0x00, 0x13, 0x00, 0x00, 0xec, 0x11, 0x00, 0x00,
  0x10, 0x10, 0x00, 0x00, 0xb4, 0x07, 0x00, 0x00, 0x6c, 0x32, 0x00, 0x00,
  0x68, 0x32, 0x00, 0x00, 0x64, 0x32, 0x00, 0x00, 0x60, 0x32, 0x00, 0x00,
  0x5c, 0x32, 0x00, 0x00, 0x58, 0x32, 0x00, 0x00, 0x54, 0x32, 0x00, 0x00,
  0x50, 0x32, 0x00, 0x00, 0x3c, 0x00, 0x00, 0x00, 0x00, 0x00, 0x00, 0x00,
  0x01, 0x00, 0x00, 0x00, 0x0c, 0x00, 0x00, 0x00, 0x08, 0x00, 0x0c, 0x00,
  0x04, 0x00, 0x08, 0x00, 0x08, 0x00, 0x00, 0x00, 0x08, 0x00, 0x00, 0x00,
  0x13, 0x00, 0x00, 0x00, 0x13, 0x00, 0x00, 0x00, 0x6d, 0x69, 0x6e, 0x5f,
  0x72, 0x75, 0x6e, 0x74, 0x69, 0x6d, 0x65, 0x5f, 0x76, 0x65, 0x72, 0x73,
  0x69, 0x6f, 0x6e, 0x00, 0xfa, 0xce, 0xff, 0xff, 0x04, 0x00, 0x00, 0x00,
  0x10, 0x00, 0x00, 0x00, 0x31, 0x2e, 0x35, 0x2e, 0x30, 0x00, 0x00, 0x00,
  0x00, 0x00, 0x00, 0x00, 0x00, 0x00, 0x00, 0x00, 0x0f, 0x00, 0x00, 0x00,
  0x4d, 0x4c, 0x49, 0x52, 0x20, 0x43, 0x6f, 0x6e, 0x76, 0x65, 0x72, 0x74,
  0x65, 0x64, 0x2e, 0x00, 0x00, 0x00, 0x0e, 0x00, 0x18, 0x00, 0x04, 0x00,
  0x08, 0x00, 0x0c, 0x00, 0x10, 0x00, 0x14, 0x00, 0x0e, 0x00, 0x00, 0x00,
  0x14, 0x00, 0x00, 0x00, 0x5c, 0x00, 0x00, 0x00, 0x60, 0x00, 0x00, 0x00,
  0x64, 0x00, 0x00, 0x00, 0x84, 0x00, 0x00, 0x00, 0x12, 0x00, 0x00, 0x00,
  0x58, 0x31, 0x00, 0x00, 0xe8, 0x30, 0x00, 0x00, 0x44, 0x30, 0x00, 0x00,
  0x9c, 0x2f, 0x00, 0x00, 0xf4, 0x2e, 0x00, 0x00, 0x94, 0x2e, 0x00, 0x00,
  0x2c, 0x2e, 0x00, 0x00, 0xd8, 0x11, 0x00, 0x00, 0xbc, 0x10, 0x00, 0x00,
  0xe0, 0x0e, 0x00, 0x00, 0x0c, 0x06, 0x00, 0x00, 0x28, 0x05, 0x00, 0x00,
  0xe8, 0x03, 0x00, 0x00, 0x3c, 0x03, 0x00, 0x00, 0x98, 0x02, 0x00, 0x00,
  0xd4, 0x01, 0x00, 0x00, 0x10, 0x01, 0x00, 0x00, 0x84, 0x00, 0x00, 0x00,
  0x01, 0x00, 0x00, 0x00, 0x00, 0x00, 0x00, 0x00, 0x01, 0x00, 0x00, 0x00,
  0x11, 0x00, 0x00, 0x00, 0x08, 0x00, 0x00, 0x00, 0x74, 0x05, 0x00, 0x00,
  0x94, 0x04, 0x00, 0x00, 0x78, 0x03, 0x00, 0x00, 0xbc, 0x02, 0x00, 0x00,
  0x30, 0x02, 0x00, 0x00, 0x50, 0x01, 0x00, 0x00, 0xa8, 0x00, 0x00, 0x00,
  0x10, 0x00, 0x00, 0x00, 0x04, 0x00, 0x00, 0x00, 0x6d, 0x61, 0x69, 0x6e,
  0x00, 0x00, 0x00, 0x00, 0x7a, 0xff, 0xff, 0xff, 0x00, 0x00, 0x00, 0x09,
  0x04, 0x00, 0x00, 0x00, 0x1c, 0x00, 0x00, 0x00, 0x10, 0x00, 0x00, 0x00,
  0x04, 0x00, 0x00, 0x00, 0xf6, 0xcf, 0xff, 0xff, 0x00, 0x00, 0x80, 0x3f,
  0x01, 0x00, 0x00, 0x00, 0x11, 0x00, 0x00, 0x00, 0x01, 0x00, 0x00, 0x00,
  0x10, 0x00, 0x00, 0x00, 0xa0, 0xfa, 0xff, 0xff, 0x19, 0x00, 0x00, 0x00,
  0x00, 0x00, 0x00, 0x19, 0x01, 0x00, 0x00, 0x00, 0x84, 0xcf, 0xff, 0xff,
  0x14, 0x00, 0x00, 0x00, 0x12, 0x00, 0x00, 0x00, 0x18, 0x00, 0x00, 0x00,
  0x30, 0x00, 0x00, 0x00, 0x20, 0x00, 0x00, 0x00, 0x02, 0x00, 0x00, 0x00,
  0x01, 0x00, 0x00, 0x00, 0x03, 0x00, 0x00, 0x00, 0x08, 0x00, 0x00, 0x00,
  0x49, 0x64, 0x65, 0x6e, 0x74, 0x69, 0x74, 0x79, 0x00, 0x00, 0x00, 0x00,
  0x02, 0x00, 0x00, 0x00, 0xff, 0xff, 0xff, 0xff, 0x03, 0x00, 0x00, 0x00,
  0x68, 0xd0, 0xff, 0xff, 0x00, 0x00, 0x0e, 0x00, 0x18, 0x00, 0x08, 0x00,
  0x0c, 0x00, 0x10, 0x00, 0x07, 0x00, 0x14, 0x00, 0x0e, 0x00, 0x00, 0x00,
  0x00, 0x00, 0x00, 0x08, 0x03, 0x00, 0x00, 0x00, 0x18, 0x00, 0x00, 0x00,
  0x0c, 0x00, 0x00, 0x00, 0x04, 0x00, 0x00, 0x00, 0x84, 0xcf, 0xff, 0xff,
  0x01, 0x00, 0x00, 0x00, 0x10, 0x00, 0x00, 0x00, 0x03, 0x00, 0x00, 0x00,
  0x0f, 0x00, 0x00, 0x00, 0x07, 0x00, 0x00, 0x00, 0x04, 0x00, 0x00, 0x00,
  0x0c, 0xd0, 0xff, 0xff, 0x14, 0x00, 0x00, 0x00, 0x11, 0x00, 0x00, 0x00,
  0x18, 0x00, 0x00, 0x00, 0x5c, 0x00, 0x00, 0x00, 0x4c, 0x00, 0x00, 0x00,
  0x02, 0x00, 0x00, 0x00, 0x01, 0x00, 0x00, 0x00, 0x03, 0x00, 0x00, 0x00,
  0x34, 0x00, 0x00, 0x00, 0x73, 0x65, 0x71, 0x75, 0x65, 0x6e, 0x74, 0x69,
  0x61, 0x6c, 0x2f, 0x64, 0x65, 0x6e, 0x73, 0x65, 0x5f, 0x31, 0x2f, 0x4d,
  0x61, 0x74, 0x4d, 0x75, 0x6c, 0x3b, 0x73, 0x65, 0x71, 0x75, 0x65, 0x6e,
  0x74, 0x69, 0x61, 0x6c, 0x2f, 0x64, 0x65, 0x6e, 0x73, 0x65, 0x5f, 0x31,
  0x2f, 0x42, 0x69, 0x61, 0x73, 0x41, 0x64, 0x64, 0x00, 0x00, 0x00, 0x00,
  0x02, 0x00, 0x00, 0x00, 0xff, 0xff, 0xff, 0xff, 0x03, 0x00, 0x00, 0x00,
  0x0c, 0xd0, 0xff, 0xff, 0xda, 0xfc, 0xff, 0xff, 0x00, 0x00, 0x00, 0x08,
  0x03, 0x00, 0x00, 0x00, 0x24, 0x00, 0x00, 0x00, 0x18, 0x00, 0x00, 0x00,
  0x0c, 0x00, 0x00, 0x00, 0x00, 0x00, 0x06, 0x00, 0x08, 0x00, 0x07, 0x00,
  0x06, 0x00, 0x00, 0x00, 0x00, 0x00, 0x00, 0x01, 0x01, 0x00, 0x00, 0x00,
  0x0f, 0x00, 0x00, 0x00, 0x03, 0x00, 0x00, 0x00, 0x0e, 0x00, 0x00, 0x00,
  0x06, 0x00, 0x00, 0x00, 0x03, 0x00, 0x00, 0x00, 0xe8, 0xfb, 0xff, 0xff,
  0x09, 0x00, 0x00, 0x00, 0x00, 0x00, 0x00, 0x09, 0x01, 0x00, 0x00, 0x00,
  0xcc, 0xd0, 0xff, 0xff, 0x14, 0x00, 0x00, 0x00, 0x10, 0x00, 0x00, 0x00,
  0x18, 0x00, 0x00, 0x00, 0x6c, 0x00, 0x00, 0x00, 0x5c, 0x00, 0x00, 0x00,
  0x02, 0x00, 0x00, 0x00, 0x01, 0x00, 0x00, 0x00, 0x10, 0x00, 0x00, 0x00,
  0x46, 0x00, 0x00, 0x00, 0x73, 0x65, 0x71, 0x75, 0x65, 0x6e, 0x74, 0x69,
  0x61, 0x6c, 0x2f, 0x64, 0x65, 0x6e, 0x73, 0x65, 0x2f, 0x4d, 0x61, 0x74,
  0x4d, 0x75, 0x6c, 0x3b, 0x73, 0x65, 0x71, 0x75, 0x65, 0x6e, 0x74, 0x69,
  0x61, 0x6c, 0x2f, 0x64, 0x65, 0x6e, 0x73, 0x65, 0x2f, 0x52, 0x65, 0x6c,
  0x75, 0x3b, 0x73, 0x65, 0x71, 0x75, 0x65, 0x6e, 0x74, 0x69, 0x61, 0x6c,
  0x2f, 0x64, 0x65, 0x6e, 0x73, 0x65, 0x2f, 0x42, 0x69, 0x61, 0x73, 0x41,
  0x64, 0x64, 0x00, 0x00, 0x02, 0x00, 0x00, 0x00, 0xff, 0xff, 0xff, 0xff,
  0x10, 0x00, 0x00, 0x00, 0xec, 0xd1, 0xff, 0xff, 0x00, 0x00, 0x0a, 0x00,
  0x10, 0x00, 0x04, 0x00, 0x08, 0x00, 0x0c, 0x00, 0x0a, 0x00, 0x00, 0x00,
  0x02, 0x00, 0x00, 0x00, 0x10, 0x00, 0x00, 0x00, 0x04, 0x00, 0x00, 0x00,
  0x01, 0x00, 0x00, 0x00, 0x0e, 0x00, 0x00, 0x00, 0x02, 0x00, 0x00, 0x00,
  0x0d, 0x00, 0x00, 0x00, 0x05, 0x00, 0x00, 0x00, 0xa8, 0xfc, 0xff, 0xff,
  0x16, 0x00, 0x00, 0x00, 0x00, 0x00, 0x00, 0x16, 0x01, 0x00, 0x00, 0x00,
  0x8c, 0xd1, 0xff, 0xff, 0x14, 0x00, 0x00, 0x00, 0x0f, 0x00, 0x00, 0x00,
  0x18, 0x00, 0x00, 0x00, 0x40, 0x00, 0x00, 0x00, 0x30, 0x00, 0x00, 0x00,
  0x02, 0x00, 0x00, 0x00, 0x01, 0x00, 0x00, 0x00, 0x70, 0x00, 0x00, 0x00,
  0x1a, 0x00, 0x00, 0x00, 0x73, 0x65, 0x71, 0x75, 0x65, 0x6e, 0x74, 0x69,
  0x61, 0x6c, 0x2f, 0x66, 0x6c, 0x61, 0x74, 0x74, 0x65, 0x6e, 0x2f, 0x52,
  0x65, 0x73, 0x68, 0x61, 0x70, 0x65, 0x00, 0x00, 0x02, 0x00, 0x00, 0x00,
  0xff, 0xff, 0xff, 0xff, 0x70, 0x00, 0x00, 0x00, 0x70, 0xd1, 0xff, 0xff,
  0x3e, 0xfe, 0xff, 0xff, 0x00, 0x00, 0x00, 0x05, 0x01, 0x00, 0x00, 0x00,
  0x38, 0x00, 0x00, 0x00, 0x2c, 0x00, 0x00, 0x00, 0x14, 0x00, 0x00, 0x00,
  0x00, 0x00, 0x0e, 0x00, 0x14, 0x00, 0x00, 0x00, 0x10, 0x00, 0x0c, 0x00,
  0x08, 0x00, 0x04, 0x00, 0x0e, 0x00, 0x00, 0x00, 0x03, 0x00, 0x00, 0x00,
  0x01, 0x00, 0x00, 0x00, 0x03, 0x00, 0x00, 0x00, 0x01, 0x00, 0x00, 0x00,
  0x01, 0x00, 0x00, 0x00, 0x0d, 0x00, 0x00, 0x00, 0x01, 0x00, 0x00, 0x00,
  0x0c, 0x00, 0x00, 0x00, 0x2c, 0xd2, 0xff, 0xff, 0x14, 0x00, 0x00, 0x00,
  0x0e, 0x00, 0x00, 0x00, 0x20, 0x00, 0x00, 0x00, 0x58, 0x00, 0x00, 0x00,
  0x40, 0x00, 0x00, 0x00, 0x04, 0x00, 0x00, 0x00, 0x01, 0x00, 0x00, 0x00,
  0x07, 0x00, 0x00, 0x00, 0x01, 0x00, 0x00, 0x00, 0x10, 0x00, 0x00, 0x00,
  0x22, 0x00, 0x00, 0x00, 0x73, 0x65, 0x71, 0x75, 0x65, 0x6e, 0x74, 0x69,
  0x61, 0x6c, 0x2f, 0x6d, 0x61, 0x78, 0x5f, 0x70, 0x6f, 0x6f, 0x6c, 0x69,
  0x6e, 0x67, 0x32, 0x64, 0x5f, 0x31, 0x2f, 0x4d, 0x61, 0x78, 0x50, 0x6f,
  0x6f, 0x6c, 0x00, 0x00, 0x04, 0x00, 0x00, 0x00, 0xff, 0xff, 0xff, 0xff,
  0x07, 0x00, 0x00, 0x00, 0x01, 0x00, 0x00, 0x00, 0x10, 0x00, 0x00, 0x00,
  0x28, 0xd2, 0xff, 0xff, 0x1a, 0xfe, 0xff, 0xff, 0x00, 0x00, 0x00, 0x01,
  0x24, 0x00, 0x00, 0x00, 0x18, 0x00, 0x00, 0x00, 0x04, 0x00, 0x00, 0x00,
  0x0c, 0xfe, 0xff, 0xff, 0x01, 0x00, 0x00, 0x00, 0x01, 0x00, 0x00, 0x00,
  0x00, 0x00, 0x00, 0x01, 0x01, 0x00, 0x00, 0x00, 0x0c, 0x00, 0x00, 0x00,
  0x03, 0x00, 0x00, 0x00, 0x0b, 0x00, 0x00, 0x00, 0x09, 0x00, 0x00, 0x00,
  0x02, 0x00, 0x00, 0x00, 0xd4, 0xd2, 0xff, 0xff, 0x14, 0x00, 0x00, 0x00,
  0x0d, 0x00, 0x00, 0x00, 0x20, 0x00, 0x00, 0x00, 0xb8, 0x00, 0x00, 0x00,
  0xa0, 0x00, 0x00, 0x00, 0x04, 0x00, 0x00, 0x00, 0x01, 0x00, 0x00, 0x00,
  0x15, 0x00, 0x00, 0x00, 0x01, 0x00, 0x00, 0x00, 0x10, 0x00, 0x00, 0x00,
  0x83, 0x00, 0x00, 0x00, 0x73, 0x65, 0x71, 0x75, 0x65, 0x6e, 0x74, 0x69,
  0x61, 0x6c, 0x2f, 0x63, 0x6f, 0x6e, 0x76, 0x32, 0x64, 0x5f, 0x31, 0x2f,
  0x52, 0x65, 0x6c, 0x75, 0x3b, 0x73, 0x65, 0x71, 0x75, 0x65, 0x6e, 0x74,
  0x69, 0x61, 0x6c, 0x2f, 0x63, 0x6f, 0x6e, 0x76, 0x32, 0x64, 0x5f, 0x31,
  0x2f, 0x42, 0x69, 0x61, 0x73, 0x41, 0x64, 0x64, 0x3b, 0x73, 0x65, 0x71,
  0x75, 0x65, 0x6e, 0x74, 0x69, 0x61, 0x6c, 0x2f, 0x63, 0x6f, 0x6e, 0x76,
  0x32, 0x64, 0x5f, 0x31, 0x2f, 0x43, 0x6f, 0x6e, 0x76, 0x32, 0x44, 0x3b,
  0x73, 0x65, 0x71, 0x75, 0x65, 0x6e, 0x74, 0x69, 0x61, 0x6c, 0x2f, 0x63,
  0x6f, 0x6e, 0x76, 0x32, 0x64, 0x5f, 0x31, 0x2f, 0x42, 0x69, 0x61, 0x73,
  0x41, 0x64, 0x64, 0x2f, 0x52, 0x65, 0x61, 0x64, 0x56, 0x61, 0x72, 0x69,
  0x61, 0x62, 0x6c, 0x65, 0x4f, 0x70, 0x2f, 0x72, 0x65, 0x73, 0x6f, 0x75,
  0x72, 0x63, 0x65, 0x00, 0x04, 0x00, 0x00, 0x00, 0xff, 0xff, 0xff, 0xff,
  0x15, 0x00, 0x00, 0x00, 0x01, 0x00, 0x00, 0x00, 0x10, 0x00, 0x00, 0x00,
  0x40, 0xd4, 0xff, 0xff, 0x00, 0x00, 0x0e, 0x00, 0x1a, 0x00, 0x08, 0x00,
  0x0c, 0x00, 0x10, 0x00, 0x07, 0x00, 0x14, 0x00, 0x0e, 0x00, 0x00, 0x00,
  0x00, 0x00, 0x00, 0x05, 0x01, 0x00, 0x00, 0x00, 0x3c, 0x00, 0x00, 0x00,
  0x30, 0x00, 0x00, 0x00, 0x14, 0x00, 0x00, 0x00, 0x00, 0x00, 0x0e, 0x00,
  0x18, 0x00, 0x17, 0x00, 0x10, 0x00, 0x0c, 0x00, 0x08, 0x00, 0x04, 0x00,
  0x0e, 0x00, 0x00, 0x00, 0x03, 0x00, 0x00, 0x00, 0x03, 0x00, 0x00, 0x00,
  0x03, 0x00, 0x00, 0x00, 0x03, 0x00, 0x00, 0x00, 0x00, 0x00, 0x00, 0x01,
  0x01, 0x00, 0x00, 0x00, 0x0b, 0x00, 0x00, 0x00, 0x01, 0x00, 0x00, 0x00,
  0x0a, 0x00, 0x00, 0x00, 0x2c, 0xff, 0xff, 0xff, 0x11, 0x00, 0x00, 0x00,
  0x00, 0x00, 0x00, 0x11, 0x01, 0x00, 0x00, 0x00, 0x10, 0xd4, 0xff, 0xff,
  0x14, 0x00, 0x00, 0x00, 0x0c, 0x00, 0x00, 0x00, 0x20, 0x00, 0x00, 0x00,
  0x58, 0x00, 0x00, 0x00, 0x40, 0x00, 0x00, 0x00, 0x04, 0x00, 0x00, 0x00,
  0x01, 0x00, 0x00, 0x00, 0x15, 0x00, 0x00, 0x00, 0x01, 0x00, 0x00, 0x00,
  0x08, 0x00, 0x00, 0x00, 0x20, 0x00, 0x00, 0x00, 0x73, 0x65, 0x71, 0x75,
  0x65, 0x6e, 0x74, 0x69, 0x61, 0x6c, 0x2f, 0x6d, 0x61, 0x78, 0x5f, 0x70,
  0x6f, 0x6f, 0x6c, 0x69, 0x6e, 0x67, 0x32, 0x64, 0x2f, 0x4d, 0x61, 0x78,
  0x50, 0x6f, 0x6f, 0x6c, 0x00, 0x00, 0x00, 0x00, 0x04, 0x00, 0x00, 0x00,
  0xff, 0xff, 0xff, 0xff, 0x15, 0x00, 0x00, 0x00, 0x01, 0x00, 0x00, 0x00,
  0x08, 0x00, 0x00, 0x00, 0x1c, 0xd5, 0xff, 0xff, 0x00, 0x00, 0x0e, 0x00,
  0x14, 0x00, 0x00, 0x00, 0x08, 0x00, 0x0c, 0x00, 0x07, 0x00, 0x10, 0x00,
  0x0e, 0x00, 0x00, 0x00, 0x00, 0x00, 0x00, 0x01, 0x30, 0x00, 0x00, 0x00,
  0x24, 0x00, 0x00, 0x00, 0x10, 0x00, 0x00, 0x00, 0x0c, 0x00, 0x10, 0x00,
  0x00, 0x00, 0x04, 0x00, 0x08, 0x00, 0x0f, 0x00, 0x0c, 0x00, 0x00, 0x00,
  0x01, 0x00, 0x00, 0x00, 0x01, 0x00, 0x00, 0x00, 0x00, 0x00, 0x00, 0x01,
  0x01, 0x00, 0x00, 0x00, 0x0a, 0x00, 0x00, 0x00, 0x03, 0x00, 0x00, 0x00,
  0x00, 0x00, 0x00, 0x00, 0x08, 0x00, 0x00, 0x00, 0x01, 0x00, 0x00, 0x00,
  0x0c, 0x00, 0x10, 0x00, 0x0b, 0x00, 0x00, 0x00, 0x0c, 0x00, 0x04, 0x00,
  0x0c, 0x00, 0x00, 0x00, 0x03, 0x00, 0x00, 0x00, 0x00, 0x00, 0x00, 0x03,
  0x01, 0x00, 0x00, 0x00, 0xf0, 0xd4, 0xff, 0xff, 0x14, 0x00, 0x00, 0x00,
  0x0b, 0x00, 0x00, 0x00, 0x20, 0x00, 0x00, 0x00, 0xb0, 0x00, 0x00, 0x00,
  0x98, 0x00, 0x00, 0x00, 0x04, 0x00, 0x00, 0x00, 0x01, 0x00, 0x00, 0x00,
  0x40, 0x00, 0x00, 0x00, 0x03, 0x00, 0x00, 0x00, 0x08, 0x00, 0x00, 0x00,
  0x7b, 0x00, 0x00, 0x00, 0x73, 0x65, 0x71, 0x75, 0x65, 0x6e, 0x74, 0x69,
  0x61, 0x6c, 0x2f, 0x63, 0x6f, 0x6e, 0x76, 0x32, 0x64, 0x2f, 0x52, 0x65,
  0x6c, 0x75, 0x3b, 0x73, 0x65, 0x71, 0x75, 0x65, 0x6e, 0x74, 0x69, 0x61,
  0x6c, 0x2f, 0x63, 0x6f, 0x6e, 0x76, 0x32, 0x64, 0x2f, 0x42, 0x69, 0x61,
  0x73, 0x41, 0x64, 0x64, 0x3b, 0x73, 0x65, 0x71, 0x75, 0x65, 0x6e, 0x74,
  0x69, 0x61, 0x6c, 0x2f, 0x63, 0x6f, 0x6e, 0x76, 0x32, 0x64, 0x2f, 0x43,
  0x6f, 0x6e, 0x76, 0x32, 0x44, 0x3b, 0x73, 0x65, 0x71, 0x75, 0x65, 0x6e,
  0x74, 0x69, 0x61, 0x6c, 0x2f, 0x63, 0x6f, 0x6e, 0x76, 0x32, 0x64, 0x2f,
  0x42, 0x69, 0x61, 0x73, 0x41, 0x64, 0x64, 0x2f, 0x52, 0x65, 0x61, 0x64,
  0x56, 0x61, 0x72, 0x69, 0x61, 0x62, 0x6c, 0x65, 0x4f, 0x70, 0x2f, 0x72,
  0x65, 0x73, 0x6f, 0x75, 0x72, 0x63, 0x65, 0x00, 0x04, 0x00, 0x00, 0x00,
  0xff, 0xff, 0xff, 0xff, 0x40, 0x00, 0x00, 0x00, 0x03, 0x00, 0x00, 0x00,
  0x08, 0x00, 0x00, 0x00, 0x44, 0xd5, 0xff, 0xff, 0x4e, 0xd6, 0xff, 0xff,
  0x04, 0x00, 0x00, 0x00, 0x00, 0x08, 0x00, 0x00, 0xef, 0x2e, 0x98, 0xbe,
  0x02, 0x64, 0x3c, 0x3d, 0xc1, 0xb8, 0x9c, 0xbd, 0x87, 0xaf, 0x22, 0xbe,
  0xab, 0xcb, 0x06, 0x3d, 0xd4, 0x0c, 0x9c, 0x3e, 0xaf, 0xb6, 0xc2, 0x39,
  0x7f, 0x8c, 0x49, 0x3e, 0x7d, 0x3c, 0x6e, 0xbe, 0x2f, 0xfd, 0x47, 0xbd,
  0x82, 0x41, 0x0e, 0xbe, 0x71, 0x19, 0xb0, 0xbd, 0x59, 0x96, 0x79, 0x3e,
  0x01, 0x60, 0x9c, 0x3d, 0xe9, 0x68, 0x3e, 0xbe, 0x0e, 0x3e, 0x16, 0xbe,
  0x26, 0xd4, 0x15, 0xbe, 0x3f, 0x39, 0xa2, 0xbd, 0x1a, 0x87, 0x99, 0xbd,
  0xd5, 0x9b, 0xa5, 0xbd, 0x39, 0xda, 0x96, 0x3e, 0x90, 0x40, 0x57, 0x3e,
  0x60, 0xf6, 0x68, 0xbe, 0xfc, 0xd0, 0x41, 0xbe, 0x66, 0xcc, 0xb8, 0xbe,
  0x05, 0x91, 0x64, 0xbe, 0x51, 0x8e, 0x5f, 0xbe, 0x8b, 0x33, 0xa0, 0xbc,
  0x63, 0x23, 0x25, 0x3e, 0x5b, 0xfa, 0x85, 0xbd, 0x0d, 0x69, 0x1c, 0xbd,
  0x43, 0x36, 0xf9, 0xbd, 0x5f, 0x1d, 0x73, 0xbe, 0x7b, 0x32, 0xbd, 0xbe,
  0xa5, 0xf6, 0x3f, 0xbd, 0x66, 0x61, 0xf8, 0xbe, 0x40, 0x23, 0x27, 0xbe,
  0xcb, 0x7b, 0xf9, 0xbe, 0xa6, 0x5b, 0x10, 0xbe, 0x43, 0xea, 0x07, 0xbe,
  0x52, 0xf7, 0x92, 0xbb, 0xef, 0x46, 0x12, 0xbe, 0xd3, 0x60, 0xa2, 0xbd,
  0xdc, 0xad, 0x35, 0x3e, 0x12, 0xc0, 0x14, 0xbd, 0x66, 0xd5, 0x04, 0xbf,
  0xc0, 0xfc, 0xd1, 0xbc, 0x38, 0x40, 0xff, 0x3d, 0xb2, 0x8d, 0x96, 0x3d,
  0xee, 0xcf, 0xcf, 0x3d, 0xdd, 0x3b, 0x20, 0xbd, 0xe6, 0x1f, 0x85, 0x3e,
  0x6e, 0xe0, 0x33, 0x3e, 0x35, 0xd3, 0xa1, 0xbe, 0xa3, 0xd8, 0x91, 0xbd,
  0x33, 0xe8, 0x68, 0x3e, 0xcc, 0xdc, 0x50, 0xbe, 0x65, 0xca, 0x83, 0x3c,
  0x63, 0xbd, 0xb0, 0xbd, 0x72, 0x38, 0x81, 0x3e, 0x57, 0x5d, 0xa7, 0x3c,
  0xba, 0x07, 0xd2, 0xbe, 0xa5, 0x20, 0xcd, 0xbd, 0xe6, 0xf5, 0x52, 0xbe,
  0xf2, 0x65, 0xd9, 0x3d, 0x04, 0xdf, 0xf5, 0x3d, 0xc3, 0xf2, 0xc7, 0xbe,
  0xc0, 0x2a, 0x3d, 0xbe, 0xc8, 0x20, 0x52, 0x3e, 0x5e, 0x3d, 0x65, 0xbe,
  0xe3, 0xf9, 0x09, 0x3e, 0x5c, 0x94, 0xe2, 0x3d, 0xcb, 0xd5, 0x12, 0x3e,
  0x9b, 0x0e, 0x84, 0xbd, 0xb1, 0xc3, 0xb0, 0xbe, 0xcd, 0xbb, 0xbd, 0xbd,
  0x93, 0xf1, 0x13, 0xbe, 0xbb, 0xe0, 0xe9, 0x3c, 0xfa, 0x3b, 0x9b, 0x3d,
  0xf0, 0x93, 0x76, 0xbc, 0x1d, 0x0e, 0x9d, 0x3c, 0xf5, 0x47, 0x4e, 0x3d,
  0xbf, 0x61, 0xc1, 0xbe, 0xa9, 0xec, 0x6c, 0xbd, 0x54, 0xe5, 0x9e, 0x3d,
  0x1f, 0x0e, 0xa8, 0x3e, 0xd7, 0xe8, 0x92, 0x3d, 0x63, 0x62, 0x71, 0xbe,
  0x46, 0x67, 0x05, 0xbc, 0x63, 0x53, 0x46, 0x3c, 0x58, 0x31, 0x6b, 0xbe,
  0x52, 0x32, 0x34, 0xbe, 0x1e, 0x23, 0x53, 0x3e, 0xab, 0x16, 0xb1, 0x3e,
  0xa1, 0x23, 0x48, 0x3e, 0xb1, 0xf8, 0x12, 0xbe, 0xf5, 0x36, 0x51, 0xbe,
  0xf6, 0xff, 0xa2, 0xbd, 0x63, 0x54, 0x3f, 0xbd, 0xe9, 0x8b, 0xe6, 0x3d,
  0x7f, 0x48, 0x11, 0xbe, 0x3e, 0x86, 0xea, 0xbd, 0x9c, 0xe0, 0xca, 0xbd,
  0x5a, 0x68, 0x4e, 0xbe, 0x25, 0x9f, 0xc2, 0xbd, 0xe1, 0x8f, 0x6f, 0x3e,
  0x4a, 0x78, 0x18, 0xbd, 0x1d, 0x80, 0x99, 0xbd, 0x3a, 0x77, 0x1b, 0xbe,
  0x27, 0x3f, 0x0e, 0x3e, 0xff, 0xb8, 0x9d, 0xbd, 0x8e, 0x94, 0x11, 0xbe,
  0xa8, 0xee, 0x13, 0xbe, 0x53, 0xdd, 0x4f, 0xbd, 0x8e, 0xe9, 0x5d, 0xbc,
  0x64, 0x17, 0x29, 0xbe, 0x34, 0xf0, 0xb0, 0x3a, 0xb9, 0x9b, 0xe2, 0xbd,
  0x0d, 0xef, 0x10, 0x3e, 0xa5, 0xe8, 0x5a, 0x3e, 0x74, 0xac, 0x08, 0x3f,
  0x16, 0xe9, 0x82, 0xbd, 0x39, 0x2f, 0xe8, 0x3b, 0xf2, 0xd1, 0x5e, 0x3d,
  0xc6, 0xf2, 0x6b, 0x3e, 0x30, 0xe7, 0x23, 0xbe, 0x38, 0x2c, 0xf1, 0xbc,
  0x0e, 0x31, 0x0e, 0xbc, 0x78, 0x1f, 0x16, 0xbf, 0x38, 0x43, 0x69, 0x3e,
  0x8a, 0xa5, 0x1c, 0xbe, 0x53, 0x09, 0x2c, 0xbe, 0xb8, 0x37, 0x78, 0xbd,
  0x17, 0x92, 0xb7, 0xbb, 0x3e, 0xaf, 0xf3, 0xbe, 0x12, 0xd3, 0x54, 0x3d,
  0xb8, 0x09, 0x32, 0xbe, 0x1c, 0xf2, 0xf8, 0xbe, 0xd1, 0x98, 0x46, 0xbd,
  0x43, 0xd9, 0x74, 0x3e, 0xfc, 0x2a, 0x14, 0xbf, 0xdd, 0x65, 0x96, 0x3e,
  0x65, 0x38, 0xdf, 0xbe, 0x84, 0xe2, 0xff, 0x3d, 0x7c, 0xf1, 0x0c, 0x3e,
  0x70, 0xc3, 0xbd, 0x3d, 0x6b, 0xd2, 0xc3, 0xbd, 0xe8, 0x9d, 0x92, 0x3c,
  0xc5, 0xf5, 0xa7, 0xbe, 0xa3, 0xa9, 0xab, 0xbd, 0x9f, 0x86, 0x3f, 0x3e,
  0x7e, 0x28, 0xd3, 0xbd, 0x06, 0x0b, 0x3d, 0x3e, 0x7d, 0x53, 0x28, 0xbe,
  0xb1, 0xe6, 0xa5, 0xbd, 0xbf, 0x51, 0x01, 0xbd, 0x4a, 0xfd, 0xb6, 0xbd,
  0x48, 0xee, 0x8b, 0xbc, 0xca, 0x47, 0x93, 0x3e, 0xa9, 0x50, 0x92, 0xbe,
  0x2c, 0xcb, 0x03, 0x3d, 0xef, 0x6e, 0x28, 0x3d, 0xc7, 0x39, 0x17, 0x3d,
  0x7f, 0x68, 0xf4, 0x3d, 0xea, 0x0f, 0xbc, 0x3d, 0x92, 0x6e, 0x3c, 0xbf,
  0xb2, 0x25, 0x7b, 0xbc, 0xa2, 0xb6, 0x7a, 0x3d, 0x83, 0xcc, 0x38, 0x39,
  0xc4, 0x49, 0xa9, 0x3c, 0x55, 0x7b, 0x94, 0xbd, 0x3b, 0xc6, 0x94, 0x3e,
  0x86, 0x54, 0x72, 0x3e, 0x3e, 0x75, 0x25, 0xbf, 0xe3, 0xaa, 0xbc, 0xbc,
  0x62, 0x8f, 0xe0, 0x3e, 0x12, 0x94, 0x2f, 0xbe, 0x3f, 0xad, 0x0b, 0x3e,
  0xe5, 0x79, 0x38, 0xbd, 0x99, 0x04, 0xd9, 0x3e, 0xc5, 0xe2, 0x24, 0xbd,
  0x58, 0xbe, 0x9b, 0xbe, 0xe6, 0x09, 0xca, 0xbd, 0x93, 0x93, 0x76, 0xbe,
  0x42, 0x70, 0xc0, 0xbe, 0xa2, 0x29, 0x2f, 0x3e, 0x89, 0xf5, 0xe8, 0xbd,
  0x4a, 0x86, 0x52, 0x3d, 0x17, 0xce, 0x16, 0xbe, 0xd1, 0x93, 0xe2, 0xbc,
  0x60, 0x80, 0x2c, 0xbe, 0x8a, 0x6a, 0xf1, 0xbe, 0x62, 0x71, 0x5e, 0xbe,
  0x3f, 0x5c, 0x71, 0xbe, 0xb6, 0xf9, 0x05, 0xbe, 0x56, 0x9c, 0xe4, 0xbe,
  0xac, 0x48, 0x5d, 0xbe, 0xd4, 0x9c, 0xe0, 0xbd, 0xda, 0x58, 0x26, 0xbe,
  0xa3, 0xdf, 0x6b, 0xbe, 0xcf, 0xb7, 0x80, 0xbd, 0xbf, 0x9e, 0x83, 0xbe,
  0x44, 0x8b, 0x15, 0xbe, 0x95, 0x9b, 0x8a, 0xbe, 0x19, 0x33, 0xa7, 0xbd,
  0x4f, 0x60, 0xc4, 0xbe, 0xa1, 0x7b, 0xe0, 0xbd, 0x96, 0xc8, 0xf7, 0xbd,
  0xa7, 0x2e, 0x2a, 0x3d, 0xaa, 0xcf, 0x5e, 0x3e, 0xa9, 0x73, 0x4c, 0xbd,
  0x99, 0xfa, 0x94, 0x3e, 0xf2, 0xe4, 0x65, 0x3e, 0x5b, 0xec, 0x64, 0xbe,
  0xa2, 0xca, 0xb7, 0xbc, 0x09, 0xf4, 0x9e, 0x3e, 0x7e, 0xa0, 0x89, 0x3e,
  0xd8, 0x21, 0x65, 0x3e, 0xfb, 0xec, 0x6d, 0x3e, 0xf7, 0x69, 0x70, 0x3e,
  0x88, 0x2b, 0xad, 0x3d, 0xb2, 0x9d, 0x67, 0xbe, 0x55, 0x2b, 0x13, 0xbc,
  0xe0, 0x52, 0x5e, 0x3d, 0xa1, 0x29, 0xb6, 0xbe, 0x45, 0xad, 0xcc, 0x3d,
  0x60, 0x49, 0x5c, 0xbe, 0xa5, 0x9f, 0xa5, 0x3d, 0xc7, 0x7a, 0xb7, 0xbe,
  0x38, 0x0c, 0xaa, 0xbd, 0xe1, 0xfa, 0xf8, 0xbe, 0x62, 0xd1, 0x3e, 0x3d,
  0x0a, 0x1a, 0xf5, 0x3d, 0xd7, 0x26, 0x30, 0xbc, 0x66, 0x37, 0xa1, 0xbd,
  0x97, 0x8e, 0xa4, 0x3e, 0xcf, 0x5d, 0x33, 0xbf, 0x4e, 0xe0, 0x9f, 0x3e,
  0xfd, 0x5a, 0x94, 0x3d, 0x17, 0x2f, 0x0b, 0xbe, 0x0a, 0x42, 0x11, 0x3e,
  0xf2, 0x05, 0xd4, 0xbe, 0x7f, 0xa2, 0x69, 0xbe, 0x53, 0x14, 0xfe, 0xbe,
  0xf5, 0x39, 0x0a, 0xbe, 0x86, 0xc8, 0x8a, 0xbd, 0xce, 0x64, 0x3e, 0x3e,
  0x8d, 0xf0, 0x8d, 0xbe, 0x91, 0x89, 0xc8, 0xbc, 0x6c, 0x2d, 0x32, 0xbe,
  0xba, 0x2e, 0xc7, 0xbc, 0xc4, 0x9a, 0x9b, 0xbb, 0x7b, 0x78, 0x11, 0x3e,
  0xab, 0xe2, 0x40, 0xbe, 0x4a, 0xc0, 0x09, 0x3e, 0x19, 0x47, 0x64, 0xbe,
  0x2a, 0xc2, 0x69, 0xbe, 0x74, 0x76, 0x94, 0xbd, 0x74, 0x88, 0xdb, 0xbc,
  0xea, 0x65, 0x33, 0x3f, 0xcf, 0x1f, 0x20, 0xbe, 0xb7, 0x77, 0x24, 0xbe,
  0xa3, 0x28, 0x8a, 0x3e, 0xa3, 0xc3, 0x53, 0xbd, 0x2c, 0xe4, 0xc2, 0xbd,
  0x1b, 0xf8, 0x78, 0xbd, 0x1a, 0x98, 0x53, 0xbd, 0x09, 0x87, 0xae, 0x3d,
  0x50, 0xb0, 0xf0, 0xbe, 0x75, 0x5e, 0xcb, 0xbd, 0x59, 0x90, 0xf8, 0xbc,
  0xe2, 0x9e, 0x48, 0xbe, 0xb9, 0x8a, 0xad, 0xbd, 0xe2, 0x8b, 0x2d, 0xbd,
  0x29, 0x55, 0x58, 0xbd, 0x1e, 0x41, 0xa1, 0xbd, 0x1c, 0x3f, 0x16, 0xbe,
  0x5a, 0xfa, 0xab, 0xbc, 0x7f, 0xcd, 0x87, 0xbd, 0x35, 0x9f, 0x65, 0xbd,
  0x72, 0x9d, 0x65, 0x3d, 0x2e, 0x3d, 0x46, 0x3b, 0x3f, 0xb0, 0x82, 0xbc,
  0xbe, 0xcb, 0x7f, 0xbe, 0x47, 0xb9, 0xfa, 0x3d, 0x05, 0x91, 0x76, 0xbc,
  0xc1, 0x1d, 0xd1, 0xbd, 0xf4, 0x76, 0x79, 0x3e, 0x3b, 0xc3, 0x8c, 0xbd,
  0xf9, 0xbd, 0x94, 0xbd, 0x8b, 0x61, 0x1c, 0xbe, 0x9a, 0x1a, 0x69, 0xbe,
  0xb7, 0xbe, 0x39, 0xbe, 0x1a, 0x54, 0x7c, 0xbd, 0xbe, 0x0a, 0xda, 0xbe,
  0xeb, 0x80, 0x17, 0xbe, 0xb7, 0xa7, 0x8a, 0xbe, 0xdd, 0x4d, 0xeb, 0x3e,
  0x17, 0xf1, 0x48, 0xbd, 0x75, 0x33, 0xac, 0x3e, 0x79, 0x0a, 0x9f, 0xbe,
  0xd6, 0xe5, 0x77, 0x3d, 0x48, 0x89, 0x1e, 0xbf, 0x77, 0x0c, 0xdc, 0x3d,
  0x7d, 0xe0, 0x4b, 0x3e, 0x4d, 0x11, 0x84, 0xbd, 0xfe, 0x93, 0xde, 0xbd,
  0x6b, 0xfd, 0x24, 0xbe, 0x52, 0x56, 0xc6, 0xbe, 0x92, 0x50, 0x55, 0xbc,
  0xe0, 0x04, 0x2e, 0x3e, 0x00, 0xa8, 0x89, 0xbe, 0xae, 0x3e, 0x78, 0x3d,
  0x69, 0x8c, 0xa6, 0xbe, 0x12, 0xbd, 0xdc, 0xbd, 0x3e, 0xfb, 0xe2, 0xbe,
  0xdf, 0x4a, 0xa3, 0x3d, 0xef, 0xc9, 0x08, 0xbd, 0x71, 0x6c, 0x26, 0x3e,
  0x7c, 0xbd, 0x9e, 0xbe, 0x3b, 0xbd, 0x31, 0xbe, 0xdf, 0xb4, 0x8a, 0xbd,
  0x87, 0x34, 0x57, 0xbd, 0x47, 0x97, 0x76, 0xbe, 0x4a, 0xe6, 0x15, 0xbe,
  0xc8, 0xbc, 0xfa, 0x3b, 0xd1, 0xe7, 0x04, 0xbe, 0xfc, 0x36, 0x28, 0xbe,
  0x14, 0x73, 0x90, 0xbd, 0x2c, 0xf1, 0x09, 0xbe, 0x9d, 0xcb, 0x02, 0xbd,
  0x8b, 0x06, 0x3d, 0xbe, 0xbb, 0xe9, 0xea, 0xbd, 0x63, 0xf3, 0x97, 0xbc,
  0xd3, 0x62, 0xe7, 0xbd, 0x09, 0x5d, 0xd4, 0xbd, 0x09, 0xc5, 0x31, 0x3f,
  0xf9, 0xf7, 0xe7, 0x3d, 0x6c, 0xd9, 0x22, 0xbc, 0x0a, 0x6a, 0xa1, 0x3c,
  0xf5, 0xaa, 0x54, 0xbd, 0x77, 0xb5, 0xdb, 0xbd, 0xf3, 0x2f, 0xb2, 0xbd,
  0xbd, 0x3c, 0x5d, 0xbd, 0xbb, 0x8c, 0x81, 0xbe, 0x6e, 0x70, 0x54, 0xbd,
  0x02, 0x97, 0x5e, 0xbc, 0x48, 0x76, 0xa5, 0x3d, 0xba, 0x93, 0x5f, 0x3e,
  0xef, 0x06, 0x5f, 0xbe, 0x5c, 0xf5, 0xf4, 0x3d, 0x90, 0x18, 0xb8, 0x3d,
  0xcf, 0x9a, 0x87, 0xbe, 0x1f, 0x39, 0xd6, 0x3e, 0xd5, 0xb6, 0x2b, 0xbe,
  0x70, 0xc6, 0xe3, 0xbc, 0xef, 0x71, 0x63, 0xbe, 0xd4, 0xe0, 0x46, 0x3d,
  0x64, 0x03, 0x08, 0xbe, 0xe8, 0x76, 0xca, 0x3d, 0x3e, 0x64, 0x4d, 0x3d,
  0x44, 0x95, 0x1f, 0x3f, 0x4b, 0xf8, 0x1a, 0xbe, 0xc0, 0x71, 0xd9, 0xbc,
  0xb4, 0xe2, 0xea, 0xbe, 0x6b, 0xaf, 0xaf, 0x3d, 0xd0, 0x0f, 0x1d, 0x3d,
  0x1a, 0xe7, 0x03, 0xbe, 0x69, 0x87, 0xcb, 0x3c, 0x3a, 0xc8, 0x8e, 0xbe,
  0x28, 0x34, 0xd2, 0xbd, 0xc4, 0x14, 0x4d, 0xbe, 0x34, 0xe1, 0x9a, 0xbd,
  0xf9, 0x48, 0x04, 0xbd, 0x4a, 0x50, 0x3c, 0x3e, 0x80, 0xbd, 0x1f, 0xbe,
  0x1c, 0x8f, 0x86, 0xbd, 0x4a, 0x84, 0x7c, 0xbd, 0x12, 0xf5, 0x7b, 0xbd,
  0x70, 0x30, 0x13, 0xbc, 0x43, 0x4d, 0x51, 0x3e, 0xfa, 0x48, 0x37, 0xbd,
  0xc9, 0x33, 0x5f, 0x3c, 0x06, 0xa3, 0x1b, 0xbe, 0x0f, 0xc4, 0x2e, 0xbd,
  0xfe, 0xdd, 0xe0, 0x3e, 0xba, 0xfc, 0x91, 0xbe, 0xd2, 0xba, 0x7d, 0x3d,
  0x35, 0xa9, 0x17, 0xbe, 0x66, 0x3e, 0xbb, 0x3e, 0x04, 0x2d, 0x65, 0x3e,
  0x17, 0x38, 0xd5, 0x3d, 0x5a, 0x02, 0x30, 0x3e, 0x73, 0x77, 0x13, 0xbd,
  0x03, 0x77, 0xaf, 0xbe, 0x56, 0x80, 0x32, 0x3c, 0x59, 0x0c, 0x6e, 0xbd,
  0xcd, 0x4f, 0x87, 0xbd, 0x04, 0x2a, 0x27, 0xbe, 0x2c, 0xac, 0x0e, 0xbe,
  0xfb, 0xbf, 0x75, 0xbd, 0xdf, 0xdf, 0x8b, 0x3e, 0x7c, 0x5c, 0x84, 0xbe,
  0xf0, 0x3d, 0x72, 0x3b, 0x30, 0xa9, 0x97, 0xba, 0x62, 0x40, 0x93, 0xbc,
  0x8e, 0x0e, 0xb7, 0x3e, 0xa1, 0x3e, 0xc0, 0xbd, 0xd7, 0x8e, 0x1c, 0xbd,
  0x57, 0xb7, 0x84, 0x3e, 0xf1, 0xae, 0x65, 0xbe, 0x64, 0x2c, 0x96, 0x3d,
  0x4b, 0x92, 0x83, 0x3d, 0xa6, 0xbe, 0x34, 0xbd, 0x8c, 0xe1, 0x68, 0x3e,
  0xd4, 0x66, 0x3f, 0xbe, 0x6e, 0x56, 0x13, 0x3e, 0xac, 0xab, 0xc4, 0xbe,
  0xd7, 0xc9, 0x0b, 0xbe, 0x6c, 0x78, 0x8d, 0xbe, 0x52, 0x86, 0x15, 0x3d,
  0x64, 0xec, 0x54, 0xbd, 0x6a, 0x39, 0x3f, 0x3d, 0x53, 0x3d, 0xab, 0x3c,
  0xaa, 0x0b, 0x72, 0xbd, 0xf8, 0xd8, 0x8e, 0x3c, 0xc2, 0xab, 0x3a, 0xbe,
  0x7e, 0xda, 0xea, 0xbe, 0x6e, 0x7c, 0x7d, 0xbd, 0x14, 0x1f, 0x01, 0xbe,
  0x87, 0xea, 0x60, 0xbe, 0xb1, 0x6b, 0x97, 0x3b, 0x8e, 0x93, 0x59, 0xbe,
  0x24, 0xca, 0xba, 0xbd, 0xb8, 0x13, 0x43, 0xbe, 0x26, 0x46, 0x78, 0xbe,
  0xd2, 0x1b, 0xef, 0x3d, 0x38, 0x64, 0x07, 0xbe, 0xb6, 0x1a, 0x30, 0xbe,
  0x09, 0xd7, 0xa5, 0x3d, 0x00, 0x15, 0x12, 0xbe, 0xaa, 0x7e, 0x91, 0x3e,
  0x9d, 0x54, 0x43, 0xbe, 0xa7, 0x6b, 0x5e, 0xbe, 0xe1, 0xd9, 0x79, 0x3d,
  0xd4, 0x23, 0xaa, 0x3e, 0xee, 0x74, 0x0b, 0xbd, 0x03, 0x9a, 0xb6, 0x3e,
  0xea, 0xaa, 0x4e, 0x3c, 0x6e, 0x9c, 0xee, 0xbd, 0x08, 0xce, 0x7b, 0x3d,
  0xa2, 0x8e, 0x5b, 0xbd, 0xf9, 0x76, 0x24, 0x3c, 0x7e, 0x4c, 0x9f, 0x3d,
  0x01, 0x43, 0xff, 0xbc, 0xdb, 0xca, 0x78, 0xbc, 0x18, 0xab, 0xaa, 0x3b,
  0x28, 0x80, 0x73, 0x3d, 0x87, 0x06, 0x6c, 0x3c, 0xf1, 0x7c, 0xee, 0x3d,
  0xd8, 0x26, 0x3e, 0xbd, 0x96, 0x43, 0xdc, 0x3c, 0x1f, 0xd5, 0x16, 0x3c,
  0x1e, 0x4c, 0x88, 0x3e, 0x4a, 0xce, 0x5f, 0x3e, 0xfe, 0x4e, 0x56, 0x3e,
  0xf1, 0x2f, 0xb9, 0x3d, 0x9d, 0xfb, 0x05, 0x3e, 0xa4, 0x05, 0x85, 0xbd,
  0x52, 0xdf, 0x40, 0x3c, 0x1d, 0xb7, 0x63, 0xbd, 0x66, 0xb2, 0xca, 0xbd,
  0x8a, 0xe5, 0xc1, 0xbd, 0x39, 0xdc, 0x31, 0xbe, 0xca, 0x5c, 0x47, 0xbc,
  0xf8, 0xb8, 0x36, 0xbe, 0xa5, 0x85, 0x87, 0x3e, 0xa7, 0xb6, 0x38, 0xbd,
  0xa4, 0x8e, 0x9e, 0xbd, 0x93, 0x1e, 0x84, 0xbd, 0x3d, 0x68, 0xe9, 0xbd,
  0xf6, 0x3d, 0xbb, 0xbe, 0x9a, 0xac, 0x58, 0xbe, 0x17, 0xa1, 0xb0, 0xbe,
  0xb4, 0x29, 0xa7, 0xbd, 0x62, 0xad, 0x0a, 0xbe, 0x20, 0x44, 0x87, 0xbe,
  0x63, 0x9b, 0x66, 0xbd, 0x4b, 0x3b, 0x8a, 0xbe, 0x38, 0x02, 0xc5, 0xbe,
  0x3e, 0xb6, 0x03, 0xbe, 0x0d, 0x09, 0xfd, 0xbe, 0x50, 0x9e, 0x9a, 0xbe,
  0x81, 0xc2, 0xd4, 0xbd, 0x70, 0xc0, 0x76, 0xbe, 0xd0, 0x48, 0xa9, 0xbd,
  0x5d, 0x87, 0xaf, 0xbe, 0xd2, 0xcf, 0x10, 0x3e, 0xb4, 0xd1, 0x3c, 0xbe,
  0xe7, 0x5c, 0x87, 0x3e, 0xe2, 0xae, 0x39, 0xbe, 0xee, 0x9d, 0xa8, 0xbd,
  0x97, 0x80, 0xbb, 0xbd, 0x37, 0xe2, 0x68, 0x3d, 0xd0, 0x30, 0x47, 0xbe,
  0xcf, 0x1e, 0x98, 0x3e, 0xda, 0xaf, 0x9a, 0x3d, 0xe3, 0x1d, 0x85, 0x3e,
  0xab, 0x0b, 0x60, 0xbe, 0x6c, 0x4f, 0xbf, 0x3e, 0x4c, 0xa1, 0x89, 0xbd,
  0x65, 0x71, 0xf7, 0xbc, 0x26, 0xde, 0xff, 0xff, 0x10, 0x00, 0x00, 0x00,
  0x0a, 0x00, 0x00, 0x00, 0x1c, 0x00, 0x00, 0x00, 0x38, 0x00, 0x00, 0x00,
  0x04, 0x00, 0x00, 0x00, 0x10, 0x00, 0x00, 0x00, 0x04, 0x00, 0x00, 0x00,
  0x01, 0x00, 0x00, 0x00, 0x08, 0x00, 0x00, 0x00, 0x1a, 0x00, 0x00, 0x00,
  0x73, 0x65, 0x71, 0x75, 0x65, 0x6e, 0x74, 0x69, 0x61, 0x6c, 0x2f, 0x63,
  0x6f, 0x6e, 0x76, 0x32, 0x64, 0x5f, 0x31, 0x2f, 0x43, 0x6f, 0x6e, 0x76,
  0x32, 0x44, 0x00, 0x00, 0x9c, 0xdd, 0xff, 0xff, 0xa6, 0xde, 0xff, 0xff,
  0x04, 0x00, 0x00, 0x00, 0x80, 0x01, 0x00, 0x00, 0x39, 0x7f, 0xfc, 0x3e,
  0xac, 0xd1, 0x12, 0x3e, 0x35, 0x85, 0xbf, 0x3c, 0x10, 0xdf, 0x82, 0x3d,
  0x7a, 0xaa, 0xa8, 0xbd, 0x52, 0x17, 0x23, 0xbd, 0x4f, 0x68, 0xd0, 0xbe,
  0x85, 0xcf, 0x0d, 0xbe, 0x8c, 0xdb, 0xa3, 0x3d, 0x91, 0x2c, 0x56, 0xbe,
  0x0a, 0x77, 0x5a, 0xbc, 0x1d, 0xc8, 0xc4, 0x3d, 0x15, 0x39, 0x81, 0x3c,
  0xdf, 0x57, 0x08, 0xbe, 0x9c, 0x4b, 0x0e, 0xbe, 0xdb, 0xc7, 0x74, 0x3d,
  0x1b, 0x15, 0x97, 0xbe, 0x0e, 0xcd, 0x0c, 0xbf, 0xfb, 0x8a, 0x73, 0xbe,
  0xed, 0xb6, 0xa3, 0x3e, 0xb9, 0xd0, 0xa5, 0x3e, 0xfb, 0xa5, 0x91, 0x3e,
  0xfd, 0x88, 0xc9, 0x3d, 0x51, 0x6d, 0xca, 0x3e, 0xe2, 0xa8, 0x63, 0xbe,
  0xb0, 0x5b, 0xe7, 0xbd, 0xa3, 0xa4, 0x21, 0x3e, 0xfd, 0xc0, 0x88, 0xbd,
  0xd5, 0x4a, 0x98, 0x3c, 0xb8, 0x42, 0x0d, 0x3e, 0x1e, 0xe0, 0xfc, 0x3c,
  0x6b, 0xd0, 0x0e, 0x3e, 0xbb, 0xa2, 0x8e, 0x3d, 0xcc, 0x6f, 0x0f, 0xbe,
  0xc3, 0xf1, 0x23, 0x3e, 0xa9, 0xb9, 0x95, 0x3d, 0x1a, 0x1f, 0x97, 0xbe,
  0x53, 0x04, 0x42, 0xbc, 0x29, 0xdd, 0xa6, 0x3d, 0x62, 0x9f, 0xc6, 0xbe,
  0x9e, 0x5a, 0x9a, 0xbd, 0xd1, 0xd3, 0x33, 0xbe, 0x08, 0xd0, 0x9a, 0x3e,
  0x11, 0x49, 0xe3, 0x3c, 0x71, 0xfb, 0xe9, 0x3d, 0x23, 0xbc, 0xa7, 0x3e,
  0x8f, 0x80, 0x12, 0x3e, 0x64, 0x1e, 0xb7, 0x3d, 0x13, 0x00, 0x7e, 0xbc,
  0x63, 0xe2, 0xe4, 0x3d, 0x9c, 0x01, 0x8f, 0xbe, 0xb0, 0xe5, 0x50, 0xbd,
  0x9e, 0x0a, 0x00, 0xbd, 0xeb, 0xab, 0xc5, 0x3d, 0x41, 0xa8, 0x0e, 0x3d,
  0x38, 0xa7, 0x24, 0xbe, 0x09, 0x41, 0xb7, 0x3c, 0xfd, 0x34, 0x83, 0xbc,
  0x4e, 0xed, 0x3a, 0xbd, 0x96, 0x9e, 0xa1, 0x3d, 0xb4, 0xfa, 0x57, 0x3d,
  0xad, 0x03, 0x65, 0xbc, 0x34, 0x4a, 0x5e, 0xbe, 0x05, 0x53, 0x2f, 0xbd,
  0x33, 0xf7, 0x1f, 0xbe, 0x62, 0x3a, 0xc9, 0x3d, 0x6f, 0x50, 0x00, 0x3f,
  0xe0, 0x42, 0x90, 0x3e, 0xae, 0xf8, 0xf4, 0x3d, 0x4c, 0x1f, 0xcd, 0xbd,
  0xd1, 0x95, 0x81, 0x3d, 0x2e, 0xe5, 0x5e, 0xbd, 0x9a, 0xd0, 0x9f, 0x3b,
  0x4e, 0x8a, 0x8d, 0x3e, 0x44, 0x56, 0x8f, 0x3e, 0x77, 0x30, 0xb5, 0xbd,
  0x5f, 0xac, 0x84, 0xbd, 0x78, 0x4b, 0xd9, 0x3d, 0x1e, 0x96, 0x8c, 0x3d,
  0x8d, 0x8a, 0xa3, 0xbe, 0xb5, 0x09, 0xac, 0x3b, 0x79, 0xca, 0xf5, 0xbc,
  0x2b, 0x62, 0x0f, 0x3d, 0xc1, 0x8f, 0xb2, 0xbe, 0x1b, 0x57, 0x03, 0xbd,
  0xeb, 0xbd, 0x55, 0x3e, 0x4b, 0x6f, 0x25, 0xbe, 0x4c, 0x3a, 0xc1, 0xbd,
  0x6c, 0x3a, 0xbf, 0x3d, 0x05, 0xf6, 0x0c, 0xbe, 0xb8, 0x39, 0x91, 0x3d,
  0x0f, 0xc0, 0x46, 0xbc, 0xb0, 0x86, 0x9b, 0xbd, 0x94, 0xe7, 0xe9, 0x3d,
  0x29, 0xf8, 0x1e, 0xbe, 0x8f, 0x8b, 0x99, 0x3e, 0xfe, 0xdf, 0xff, 0xff,
  0x10, 0x00, 0x00, 0x00, 0x09, 0x00, 0x00, 0x00, 0x1c, 0x00, 0x00, 0x00,
  0x38, 0x00, 0x00, 0x00, 0x04, 0x00, 0x00, 0x00, 0x08, 0x00, 0x00, 0x00,
  0x04, 0x00, 0x00, 0x00, 0x03, 0x00, 0x00, 0x00, 0x01, 0x00, 0x00, 0x00,
  0x18, 0x00, 0x00, 0x00, 0x73, 0x65, 0x71, 0x75, 0x65, 0x6e, 0x74, 0x69,
  0x61, 0x6c, 0x2f, 0x63, 0x6f, 0x6e, 0x76, 0x32, 0x64, 0x2f, 0x43, 0x6f,
  0x6e, 0x76, 0x32, 0x44, 0x00, 0x00, 0x00, 0x00, 0x74, 0xdf, 0xff, 0xff,
  0x7e, 0xe0, 0xff, 0xff, 0x04, 0x00, 0x00, 0x00, 0xc0, 0x00, 0x00, 0x00,
  0x77, 0xce, 0x5c, 0x3e, 0xc6, 0xea, 0x5a, 0x3e, 0x89, 0xcb, 0x17, 0xbd,
  0xa6, 0x70, 0xa7, 0x3e, 0x14, 0x7c, 0x92, 0x3e, 0xc7, 0xdc, 0xd3, 0xbe,
  0x85, 0xf7, 0xbf, 0xbb, 0x57, 0x10, 0xad, 0x3e, 0x08, 0xfe, 0xa6, 0xbe,
  0x65, 0x66, 0x5d, 0xbe, 0x78, 0x63, 0xb1, 0xbe, 0x6b, 0x07, 0x08, 0xbe,
  0x0b, 0x6f, 0x37, 0xbe, 0x5c, 0x29, 0x08, 0xbe, 0xf2, 0x79, 0x55, 0x3e,
  0xf3, 0x1e, 0xbb, 0x3e, 0x6f, 0x69, 0x7e, 0x3e, 0x44, 0x74, 0xbf, 0x3e,
  0x2c, 0xeb, 0xa6, 0x3d, 0x52, 0x7d, 0xc0, 0x3e, 0x9b, 0x08, 0x5b, 0x3e,
  0x56, 0x19, 0x9d, 0xbe, 0x7e, 0x1d, 0x84, 0x3d, 0x34, 0xb1, 0x7f, 0x3e,
  0x56, 0x3d, 0xfa, 0xbe, 0x06, 0xeb, 0xa2, 0x3e, 0x9a, 0x03, 0x80, 0xbe,
  0x63, 0x9e, 0x97, 0x3d, 0x09, 0x39, 0xd7, 0xbd, 0xf4, 0xfd, 0xdc, 0xbd,
  0x03, 0x63, 0xf7, 0xbd, 0x1c, 0x77, 0xd8, 0x3e, 0x48, 0x88, 0x54, 0x3e,
  0x0b, 0x0c, 0xbb, 0x3e, 0xe6, 0x8c, 0xa9, 0xbe, 0x12, 0x53, 0x98, 0x3e,
  0x42, 0x4d, 0x46, 0x3e, 0x0e, 0x15, 0x84, 0x3e, 0x79, 0x38, 0xcc, 0x38,
  0x1b, 0xa7, 0x87, 0x3e, 0xdc, 0xbe, 0xfa, 0xbd, 0x46, 0xd8, 0x00, 0x3f,
  0x51, 0x5e, 0xb5, 0xbe, 0x0c, 0xab, 0xbd, 0x3d, 0x6a, 0x3b, 0x91, 0xbd,
  0x7f, 0x59, 0x65, 0xbe, 0xf4, 0x7f, 0x51, 0xbe, 0xde, 0xfe, 0xb5, 0x3e,
  0x16, 0xe1, 0xff, 0xff, 0x10, 0x00, 0x00, 0x00, 0x08, 0x00, 0x00, 0x00,
  0x14, 0x00, 0x00, 0x00, 0x30, 0x00, 0x00, 0x00, 0x02, 0x00, 0x00, 0x00,
  0x03, 0x00, 0x00, 0x00, 0x10, 0x00, 0x00, 0x00, 0x19, 0x00, 0x00, 0x00,
  0x73, 0x65, 0x71, 0x75, 0x65, 0x6e, 0x74, 0x69, 0x61, 0x6c, 0x2f, 0x64,
  0x65, 0x6e, 0x73, 0x65, 0x5f, 0x31, 0x2f, 0x4d, 0x61, 0x74, 0x4d, 0x75,
  0x6c, 0x00, 0x00, 0x00, 0x84, 0xe0, 0xff, 0xff, 0x8e, 0xe1, 0xff, 0xff,
  0x04, 0x00, 0x00, 0x00, 0x00, 0x1c, 0x00, 0x00, 0xc9, 0x9a, 0x8f, 0x3d,
  0x29, 0x6a, 0x05, 0xbe, 0xfb, 0x15, 0x8e, 0xbe, 0xf0, 0x65, 0xba, 0x3d,
  0xee, 0x45, 0x92, 0x3e, 0xe1, 0x6d, 0x0b, 0xbe, 0x60, 0xcd, 0x63, 0xbe,
  0x00, 0x25, 0x58, 0x3e, 0x8f, 0x81, 0xfd, 0x3d, 0x55, 0x9f, 0x1a, 0x3e,
  0x28, 0x28, 0x9f, 0x3d, 0x38, 0xc2, 0xe5, 0x3e, 0x2b, 0xed, 0x2f, 0x3e,
  0x34, 0xf2, 0xb5, 0xbd, 0x3b, 0x33, 0xb7, 0x3b, 0x7f, 0x55, 0xd4, 0xbd,
  0xb5, 0xe0, 0x80, 0x3c, 0x98, 0x2e, 0x13, 0xbe, 0x73, 0xbc, 0x75, 0xbe,
  0x0f, 0x7f, 0x37, 0xbe, 0x37, 0xcf, 0x79, 0xbe, 0xa0, 0xfa, 0xe2, 0xbd,
  0x96, 0x43, 0x8e, 0xbb, 0x92, 0xc5, 0xa9, 0x3c, 0x21, 0x45, 0xe7, 0xbd,
  0x9b, 0x4f, 0xee, 0xbd, 0xb7, 0x8c, 0x70, 0x3a, 0xf2, 0xae, 0xa3, 0xbd,
  0x57, 0xe2, 0x88, 0xbe, 0x62, 0x5b, 0x7b, 0x3d, 0x12, 0x6d, 0x1a, 0x3d,
  0xb6, 0x7b, 0xc6, 0x3d, 0xf7, 0x52, 0x9d, 0x3d, 0xc1, 0xe6, 0x06, 0xbb,
  0xf4, 0xaf, 0xfc, 0xbd, 0x2b, 0x06, 0x16, 0xbf, 0xc4, 0x02, 0xee, 0xbd,
  0x3b, 0xff, 0xc9, 0xbe, 0x7b, 0x9e, 0x71, 0xbe, 0xbe, 0x3f, 0xb2, 0xbe,
  0x41, 0x67, 0x5c, 0xbd, 0xef, 0x9a, 0x43, 0xbd, 0x5d, 0xc8, 0x50, 0xbe,
  0xc1, 0xf0, 0x33, 0xbd, 0x64, 0x69, 0xc0, 0xbe, 0x22, 0xe7, 0x45, 0x3d,
  0xc2, 0x43, 0xa7, 0xbc, 0xe1, 0x22, 0xb8, 0xbd, 0x06, 0x91, 0x0e, 0xbe,
  0x9b, 0xd5, 0x59, 0xbe, 0x77, 0xc0, 0x26, 0xbe, 0xef, 0xc9, 0x81, 0xbe,
  0xee, 0x18, 0xd2, 0xbc, 0x6e, 0x11, 0x24, 0xbe, 0x44, 0x6a, 0x3a, 0xbe,
  0x88, 0x0d, 0xc9, 0xbd, 0x99, 0x9d, 0xc1, 0xbe, 0x1f, 0x17, 0x71, 0x3b,
  0x4c, 0x4e, 0xd6, 0xbe, 0x74, 0x2e, 0xe4, 0xbd, 0x26, 0xd1, 0x12, 0xbf,
  0x69, 0x30, 0xe7, 0xbd, 0xe1, 0xd8, 0x58, 0xbd, 0x7b, 0x07, 0xd9, 0xbd,
  0x92, 0x26, 0x7d, 0x3d, 0x6d, 0xc6, 0x8a, 0xbd, 0x77, 0xf7, 0xc7, 0x3c,
  0xfe, 0x29, 0x23, 0xbe, 0x13, 0xbf, 0x55, 0xbc, 0x6c, 0xb8, 0xbc, 0xbd,
  0xae, 0x1d, 0x2f, 0xbe, 0x46, 0x71, 0x65, 0xbe, 0xfd, 0xf0, 0x77, 0xbd,
  0x3e, 0x5d, 0xa3, 0xbd, 0x3e, 0x92, 0x0a, 0xbe, 0xf5, 0x64, 0xbd, 0xbc,
  0xc6, 0xc2, 0x1b, 0xbe, 0x11, 0x44, 0x5c, 0xbd, 0x54, 0x5f, 0xb3, 0x3c,
  0x74, 0x28, 0xae, 0xbc, 0x30, 0xed, 0xba, 0x3d, 0x42, 0xb2, 0xb7, 0xbd,
  0x94, 0xcb, 0x80, 0x3c, 0xaa, 0xa6, 0x74, 0xbe, 0x4f, 0x27, 0x53, 0xbe,
  0xd0, 0x44, 0xeb, 0xbb, 0x75, 0xf5, 0xc2, 0xbd, 0xb2, 0x2e, 0xbf, 0x3d,
  0xc7, 0xa0, 0x81, 0xbe, 0x15, 0x97, 0x9f, 0x3b, 0xc2, 0xc8, 0xa0, 0xbd,
  0x2e, 0xe1, 0x7b, 0xbe, 0x4c, 0x77, 0x9f, 0xbe, 0xd1, 0x8f, 0xc9, 0xbe,
  0x15, 0xd9, 0x16, 0x3b, 0x95, 0x5c, 0xa0, 0xbe, 0xea, 0xce, 0x7a, 0xbe,
  0xbf, 0x6f, 0xa5, 0xbc, 0x39, 0xce, 0xf4, 0x3c, 0xe5, 0x10, 0xf9, 0xbe,
  0x27, 0xc6, 0x6a, 0xbd, 0xbd, 0x81, 0x46, 0xbb, 0x9a, 0x6b, 0xe3, 0xbb,
  0x15, 0xe1, 0x17, 0xbd, 0x46, 0x5c, 0x9d, 0xbe, 0x12, 0xc4, 0x49, 0x3d,
  0x4b, 0xe1, 0xa7, 0xbd, 0xdc, 0xe8, 0xb0, 0x3b, 0xf9, 0x50, 0xb2, 0xbd,
  0xc6, 0x55, 0x98, 0xbe, 0xe1, 0xcf, 0x07, 0xbc, 0x40, 0xe4, 0x91, 0xbe,
  0xd3, 0x98, 0x2d, 0x3d, 0x06, 0xe4, 0x85, 0xbe, 0x52, 0x1e, 0x4d, 0x3e,
  0xf4, 0xad, 0x21, 0xbd, 0xb9, 0x55, 0x6f, 0x3e, 0xf0, 0x17, 0x33, 0xbe,
  0xc3, 0x77, 0xcd, 0xbd, 0x1f, 0x9b, 0x35, 0x3e, 0xc8, 0x14, 0x05, 0x3e,
  0xa5, 0xff, 0x6e, 0x3d, 0xd7, 0x49, 0x14, 0xbe, 0x21, 0x20, 0xef, 0x3d,
  0xac, 0x32, 0xed, 0x3c, 0x43, 0x64, 0x15, 0x3e, 0x88, 0x7d, 0x9b, 0xbc,
  0x53, 0x84, 0x15, 0x3e, 0x1f, 0x76, 0x76, 0xba, 0xd8, 0x74, 0x93, 0x3e,
  0x32, 0x94, 0xd9, 0xbd, 0x59, 0x44, 0x1c, 0xbe, 0x2d, 0xc8, 0x50, 0xbe,
  0x17, 0x6d, 0xa4, 0xbc, 0x21, 0xa6, 0x65, 0x3d, 0xb2, 0xbb, 0x88, 0xbe,
  0xf2, 0x0f, 0x95, 0xbe, 0x36, 0x36, 0x7b, 0x3b, 0x47, 0x41, 0xb5, 0xbd,
  0x62, 0x8a, 0x3a, 0xbd, 0x3d, 0xa5, 0x22, 0xbc, 0xb6, 0xd2, 0xda, 0x3d,
  0xc4, 0x34, 0x01, 0x3d, 0x8e, 0x7d, 0x1c, 0xbe, 0xa4, 0x5e, 0x40, 0xbc,
  0x11, 0xca, 0xa0, 0x3d, 0x6e, 0xe7, 0x89, 0x3d, 0x67, 0x61, 0x1b, 0xbd,
  0x00, 0xf3, 0x8c, 0x3d, 0xc5, 0xf2, 0xf0, 0xbd, 0x67, 0x3b, 0x4a, 0x3c,
  0x51, 0xcd, 0x73, 0xbe, 0xcb, 0x68, 0xb9, 0xbe, 0xa7, 0xfb, 0xad, 0x3c,
  0xbe, 0x04, 0x3a, 0xbe, 0x5f, 0x17, 0xaf, 0x3b, 0x6b, 0x87, 0x87, 0x3c,
  0x37, 0xdc, 0x83, 0x3e, 0xa6, 0x2f, 0x96, 0x3d, 0xb4, 0xb6, 0xb2, 0x3c,
  0x53, 0x75, 0xc2, 0x3c, 0x89, 0x81, 0x64, 0x3d, 0xb8, 0x3c, 0x38, 0xbd,
  0x44, 0xb4, 0xd1, 0xbd, 0x06, 0x23, 0x08, 0x3e, 0xc2, 0x34, 0x29, 0xbe,
  0x79, 0x59, 0x80, 0xbd, 0x61, 0xa5, 0x3b, 0x3e, 0x15, 0x6b, 0x13, 0xbe,
  0x22, 0x3b, 0x54, 0xbd, 0x77, 0x88, 0x09, 0xbe, 0x73, 0x2a, 0xce, 0xbd,
  0x4d, 0xf6, 0x07, 0x3d, 0x67, 0xb1, 0x35, 0x3d, 0x0f, 0x71, 0x36, 0x3d,
  0x0b, 0xd5, 0x4a, 0x3e, 0xe6, 0xef, 0x02, 0x3e, 0xef, 0x6d, 0x37, 0xbe,
  0xc1, 0xab, 0x23, 0x3e, 0xe7, 0xd8, 0xb9, 0xbd, 0xcd, 0x19, 0xbf, 0xbd,
  0x13, 0x14, 0xcf, 0xbd, 0x19, 0x74, 0x16, 0xbe, 0xfb, 0xf7, 0x06, 0xbc,
  0x16, 0xe9, 0x0f, 0xbd, 0x75, 0x0e, 0x2d, 0xbe, 0xab, 0x60, 0x4f, 0xbe,
  0xa9, 0x69, 0x53, 0x3d, 0xe4, 0x14, 0xfe, 0x3c, 0xda, 0xc4, 0xfa, 0xbc,
  0x69, 0x56, 0x83, 0x3d, 0x84, 0x95, 0x04, 0x3c, 0x4e, 0x45, 0x1e, 0x3d,
  0x7e, 0x1a, 0xdb, 0xbe, 0x90, 0xb2, 0xc3, 0x3d, 0x7c, 0x49, 0x6b, 0xbe,
  0xc5, 0x95, 0xe2, 0xbc, 0x27, 0x12, 0x2b, 0xbe, 0xa9, 0xe9, 0x66, 0xbe,
  0xcf, 0xf9, 0x4e, 0x3e, 0xf8, 0x1c, 0x24, 0xbe, 0xc1, 0x5e, 0x94, 0x3e,
  0xa8, 0xf8, 0xba, 0xbe, 0xf0, 0xb6, 0xaa, 0x3c, 0x3c, 0x3f, 0x3a, 0x3d,
  0xd5, 0xcd, 0xdc, 0x3c, 0x04, 0x1b, 0x2d, 0x3d, 0xcd, 0x33, 0x11, 0xbb,
  0x14, 0x4e, 0xbe, 0x3c, 0x04, 0xa7, 0x79, 0x3c, 0xec, 0xbd, 0x43, 0xbd,
  0xe5, 0xbd, 0xec, 0xbd, 0x60, 0x0c, 0x2e, 0x3e, 0x7c, 0xce, 0x6c, 0x3b,
  0x3f, 0xcf, 0x10, 0xbd, 0xe4, 0xd8, 0xf3, 0x3d, 0x42, 0x0f, 0x3c, 0xbe,
  0x31, 0x21, 0xcb, 0x3d, 0x74, 0xc2, 0x05, 0xbe, 0x5e, 0xab, 0x84, 0x3d,
  0x74, 0xb4, 0x9f, 0x3c, 0x67, 0xfc, 0x9c, 0x3d, 0x72, 0x3e, 0xdc, 0x3c,
  0x29, 0xa7, 0x20, 0x3e, 0x51, 0xa2, 0xe9, 0xbc, 0xbd, 0x23, 0xbe, 0xbd,
  0xf6, 0x8f, 0xd1, 0x3d, 0xec, 0xa5, 0x65, 0x3c, 0xf9, 0xbc, 0xa7, 0x3d,
  0x07, 0x21, 0x5e, 0xbe, 0xa1, 0x51, 0xee, 0xbd, 0xd5, 0x49, 0x96, 0xbc,
  0xa4, 0x88, 0x43, 0x3e, 0x43, 0xfb, 0xb0, 0xbd, 0xd9, 0x5d, 0x54, 0xbe,
  0xd1, 0x65, 0x05, 0x3e, 0x85, 0x39, 0x5f, 0xbe, 0xae, 0x7c, 0xa1, 0xbc,
  0xa5, 0x00, 0x56, 0xbe, 0xab, 0xcc, 0xc6, 0xbd, 0x21, 0x29, 0x02, 0x3c,
  0x17, 0xeb, 0xb7, 0xbd, 0x01, 0x9a, 0x0c, 0x3e, 0xaa, 0x0b, 0x4c, 0xbe,
  0xd7, 0x4e, 0xdf, 0xbc, 0xb0, 0xb0, 0x7e, 0x3d, 0xb1, 0x7a, 0xab, 0xbd,
  0x41, 0xcf, 0x83, 0x3c, 0xbd, 0xf5, 0xdd, 0xbd, 0x4a, 0xe5, 0xb9, 0xbd,
  0x9d, 0x37, 0x00, 0xbd, 0x74, 0xe9, 0xc1, 0xbd, 0x26, 0x31, 0x30, 0xbd,
  0x5e, 0xf1, 0x0e, 0xbe, 0x83, 0xe3, 0x88, 0xbe, 0x2d, 0x9a, 0x2f, 0xbd,
  0x0a, 0xd4, 0x23, 0x3e, 0x40, 0xfc, 0xdc, 0xbc, 0x86, 0x88, 0x98, 0xbd,
  0x07, 0x4f, 0xe4, 0x3c, 0xe9, 0x4d, 0x67, 0x3d, 0x05, 0x7e, 0x82, 0x3d,
  0x62, 0x41, 0xab, 0xbd, 0xe0, 0xdd, 0x48, 0x3d, 0x7c, 0xfc, 0x06, 0xbe,
  0x1e, 0xa8, 0x3d, 0xbc, 0xe4, 0x5a, 0x57, 0xbe, 0xca, 0x0a, 0x10, 0x3e,
  0xa4, 0x06, 0x92, 0xbe, 0xc2, 0x43, 0x00, 0x3d, 0x59, 0x2f, 0x95, 0xbe,
  0x0a, 0xfd, 0x9c, 0xbd, 0x59, 0xbd, 0x31, 0x3d, 0x44, 0x8f, 0x37, 0xbd,
  0x32, 0xb1, 0x09, 0x3e, 0x63, 0x4a, 0x37, 0xbe, 0x36, 0xd4, 0xf3, 0x3c,
  0xaa, 0xca, 0x4f, 0xbe, 0x0f, 0xf8, 0x27, 0xbd, 0x10, 0xbc, 0xb2, 0xbd,
  0xf4, 0xce, 0x24, 0xbe, 0x30, 0xd3, 0xe0, 0xbd, 0x53, 0x3d, 0xba, 0xbd,
  0x24, 0x3a, 0x90, 0xbb, 0x1c, 0x68, 0x9c, 0xbd, 0x08, 0x63, 0xdc, 0xbd,
  0x63, 0xd5, 0x86, 0xbe, 0x61, 0x74, 0xee, 0xbc, 0x17, 0x58, 0x57, 0xbc,
  0xad, 0x29, 0xd0, 0x3b, 0x4c, 0xef, 0x96, 0xbc, 0x3e, 0xb8, 0x11, 0x3e,
  0xcf, 0xaa, 0x5c, 0x3b, 0xd6, 0x4b, 0x1c, 0xbe, 0x86, 0xb9, 0x0a, 0xbe,
  0x7f, 0x8a, 0x42, 0x3e, 0x76, 0xf2, 0xc7, 0xbb, 0xf4, 0xb6, 0x53, 0x3e,
  0x67, 0xbd, 0x05, 0xbe, 0x3d, 0x45, 0x96, 0xbe, 0x5d, 0x11, 0xe9, 0xbd,
  0xaa, 0xc4, 0x00, 0x3d, 0x3d, 0x73, 0xc8, 0xbe, 0x1b, 0xe4, 0xcd, 0x3e,
  0xbe, 0xbf, 0xb8, 0xbd, 0x4c, 0xa8, 0x15, 0xbd, 0xcc, 0xe6, 0xd6, 0x3d,
  0xb2, 0x2c, 0x84, 0x3d, 0x5d, 0xcb, 0x37, 0xbd, 0xe1, 0x74, 0x88, 0x3d,
  0x0a, 0xf2, 0x4a, 0xbd, 0xc6, 0xc2, 0x13, 0x3e, 0x64, 0x6a, 0x33, 0x3e,
  0x0a, 0x7e, 0xe7, 0x3d, 0x23, 0x55, 0x01, 0xbe, 0x3f, 0x9a, 0xd6, 0x3c,
  0xa7, 0xb2, 0x30, 0x3e, 0xfd, 0xd5, 0x08, 0xbe, 0x96, 0x4c, 0xa5, 0xbd,
  0x8c, 0x82, 0x36, 0xbe, 0xf6, 0x75, 0x70, 0xbe, 0x29, 0xe5, 0x05, 0xbe,
  0xde, 0x74, 0xd2, 0x3d, 0x74, 0xda, 0x57, 0xbe, 0x21, 0x36, 0xc8, 0xbd,
  0x97, 0x71, 0x2e, 0xbd, 0xb2, 0x1b, 0xea, 0x3c, 0xa4, 0x57, 0x30, 0x3d,
  0x0e, 0x22, 0x4f, 0xbe, 0x03, 0x2e, 0x0a, 0x3d, 0xa9, 0xee, 0x32, 0xbd,
  0x9f, 0x99, 0x42, 0x3d, 0xb0, 0x08, 0x63, 0xbe, 0xff, 0x2e, 0x0f, 0xbc,
  0x46, 0x4a, 0x04, 0xbe, 0x88, 0x39, 0x5d, 0xbd, 0xca, 0x2e, 0xd9, 0xba,
  0x5e, 0xe1, 0xcf, 0xbe, 0xdf, 0x57, 0x05, 0xbe, 0x1a, 0x54, 0x27, 0xbf,
  0x6d, 0xd9, 0x02, 0xbe, 0x8d, 0x8d, 0x46, 0xbd, 0xd5, 0xab, 0x3f, 0xbf,
  0x56, 0x5e, 0xc7, 0xbe, 0x3a, 0xaf, 0x15, 0xbe, 0x2c, 0xdb, 0x41, 0x3d,
  0xc5, 0x8a, 0x2e, 0xbf, 0x40, 0x83, 0x0a, 0x3d, 0xd7, 0x60, 0x26, 0xbe,
  0x13, 0x3a, 0x86, 0xbe, 0x89, 0xd8, 0x7c, 0xbe, 0x8e, 0x02, 0x74, 0xbe,
  0xa6, 0xf9, 0xcb, 0x3b, 0x05, 0x51, 0xf4, 0x3d, 0xbc, 0x7e, 0x36, 0xbe,
  0xf9, 0x56, 0x53, 0xbe, 0x39, 0x84, 0x4a, 0xbe, 0xee, 0x2f, 0x14, 0xbe,
  0x46, 0xa6, 0x87, 0xbd, 0x43, 0x7d, 0x7b, 0xbe, 0x9f, 0x9a, 0x22, 0xbd,
  0xc8, 0x25, 0x96, 0xbd, 0x86, 0x0f, 0x87, 0xbe, 0x1d, 0xc8, 0x54, 0xbd,
  0x68, 0xb1, 0xf3, 0xba, 0x2d, 0xd4, 0x43, 0xbe, 0x2f, 0x4d, 0x85, 0xbe,
  0x9c, 0x46, 0x99, 0xbe, 0x56, 0x2f, 0x0a, 0x3d, 0xac, 0x51, 0x92, 0x3b,
  0x0b, 0x83, 0x06, 0x3e, 0x85, 0x6f, 0x97, 0xbe, 0x3f, 0x7f, 0xc1, 0xbe,
  0x4c, 0xc8, 0xa8, 0xbe, 0x5e, 0x99, 0xa8, 0xbe, 0x98, 0x78, 0x11, 0x3b,
  0xcb, 0x02, 0xe3, 0x3d, 0x41, 0x3c, 0xe8, 0xbd, 0xd9, 0x90, 0x88, 0xbe,
  0x4b, 0xe2, 0x87, 0x3b, 0xb9, 0x16, 0x05, 0xbe, 0xbf, 0x73, 0x93, 0xbd,
  0x22, 0xc8, 0x20, 0xbe, 0xa6, 0xac, 0x50, 0xbc, 0xf4, 0x17, 0xa1, 0xbd,
  0x26, 0x75, 0x52, 0xbe, 0x13, 0x4c, 0xee, 0x3b, 0x53, 0x59, 0x29, 0xbf,
  0x06, 0xb9, 0x9a, 0xbe, 0xbe, 0xc3, 0xb5, 0xbd, 0x65, 0x6f, 0x2f, 0xbf,
  0x78, 0xe0, 0x50, 0xbe, 0x56, 0xe8, 0xb1, 0xbe, 0xfc, 0x3d, 0x05, 0xbe,
  0xa4, 0xc5, 0xb2, 0xbe, 0xa8, 0xe3, 0x02, 0x3d, 0x33, 0x1a, 0x3a, 0xbe,
  0x9b, 0xd3, 0x91, 0xbd, 0x81, 0xba, 0x81, 0xbe, 0x51, 0x52, 0x37, 0x3d,
  0x3c, 0x1e, 0xa6, 0xbd, 0x01, 0xae, 0x7c, 0x3d, 0x35, 0x04, 0x51, 0xbc,
  0x87, 0x39, 0xa4, 0x3c, 0xad, 0x74, 0x01, 0x3e, 0xc5, 0x43, 0x4e, 0xbe,
  0x25, 0x2e, 0xaa, 0xbc, 0x28, 0xdb, 0x93, 0x3d, 0x4f, 0x3e, 0xe9, 0xbc,
  0xe4, 0x95, 0xd1, 0x3e, 0x0a, 0xd2, 0x27, 0x3d, 0xab, 0x15, 0x37, 0x3d,
  0x56, 0xee, 0x7c, 0x3d, 0x15, 0xc9, 0x27, 0x3e, 0x96, 0x51, 0x60, 0xbe,
  0x59, 0x42, 0xd2, 0x3e, 0xb8, 0x10, 0x37, 0xbe, 0x52, 0xa7, 0x44, 0xbe,
  0x50, 0x12, 0x65, 0xbe, 0x35, 0x8e, 0x33, 0x3b, 0xcd, 0xc2, 0x9f, 0x3e,
  0xfc, 0x49, 0x39, 0x3c, 0x60, 0x8c, 0xb7, 0xbd, 0x7c, 0xc3, 0xd6, 0x3e,
  0x86, 0xba, 0x56, 0x3c, 0xca, 0x5c, 0x8e, 0x3e, 0x37, 0x35, 0x79, 0x3c,
  0x1a, 0x88, 0x29, 0x3e, 0x9e, 0xf0, 0x1b, 0x3e, 0xd9, 0x48, 0x3e, 0x3e,
  0x82, 0x00, 0x86, 0xbb, 0x3b, 0x61, 0x95, 0x3e, 0xab, 0x37, 0xba, 0xbe,
  0x2c, 0x56, 0x40, 0xbe, 0xa2, 0x8e, 0xb8, 0xbd, 0x93, 0x3e, 0xeb, 0x3d,
  0x3d, 0x7b, 0x9c, 0x3e, 0x81, 0x39, 0x6c, 0x3d, 0xdc, 0xd5, 0x84, 0x3c,
  0xca, 0xb0, 0x42, 0x3e, 0x06, 0xbc, 0x4b, 0xbd, 0xa8, 0xdf, 0x91, 0x3e,
  0xaa, 0x4c, 0xa8, 0x3d, 0x70, 0x38, 0x28, 0xbe, 0x73, 0x69, 0xc8, 0x3d,
  0x90, 0x04, 0xe1, 0xbd, 0xc6, 0x60, 0x35, 0x3c, 0x88, 0xd0, 0x8f, 0x3d,
  0xcb, 0x6c, 0x2a, 0xbe, 0x80, 0xcd, 0xa9, 0x3e, 0x75, 0xd7, 0x26, 0xbc,
  0xfd, 0x78, 0x89, 0xbd, 0xab, 0x8a, 0x39, 0xbe, 0x01, 0xee, 0x81, 0x3e,
  0x42, 0x28, 0xb9, 0x3d, 0x75, 0xe9, 0xa0, 0xbe, 0xbf, 0x2a, 0xfd, 0xbb,
  0x1c, 0xc8, 0x73, 0xbe, 0xc1, 0xc2, 0xa9, 0x3c, 0xb8, 0x10, 0x9d, 0xbe,
  0x55, 0xae, 0xa2, 0xbe, 0xbb, 0xc7, 0xe8, 0xbd, 0x45, 0x3f, 0xde, 0xbd,
  0x77, 0x57, 0x0f, 0xbe, 0xbb, 0x88, 0xde, 0xbe, 0xf8, 0xc8, 0xbb, 0xbe,
  0xa0, 0x19, 0x8d, 0xbd, 0x7b, 0xac, 0x7a, 0x3e, 0x49, 0x01, 0xaa, 0x3c,
  0xa9, 0xc5, 0x0e, 0x3e, 0xde, 0x9d, 0xab, 0x3d, 0x80, 0x4d, 0xef, 0x3d,
  0x46, 0x6a, 0xa9, 0x3e, 0x34, 0xb6, 0xc6, 0xbd, 0x46, 0x49, 0x8c, 0x3e,
  0x06, 0x63, 0xca, 0x3d, 0x14, 0x49, 0xd3, 0xbd, 0x05, 0x16, 0x3e, 0xbe,
  0x7e, 0x93, 0xe8, 0xbd, 0x40, 0x6a, 0xc0, 0x3e, 0xaf, 0x8d, 0xb6, 0xbe,
  0x64, 0x51, 0x63, 0x3d, 0x67, 0x99, 0xdd, 0x3c, 0xe5, 0x2e, 0x8b, 0x3e,
  0x3b, 0x0d, 0xa7, 0x3e, 0x1e, 0x5e, 0x17, 0x3e, 0x0d, 0xac, 0x11, 0x3e,
  0xae, 0x26, 0xca, 0x3e, 0xed, 0x94, 0x9b, 0x3e, 0xc3, 0x6d, 0x55, 0xbc,
  0xd4, 0x7c, 0xbd, 0x3e, 0xda, 0x9b, 0x50, 0xbe, 0xbf, 0xc1, 0x2a, 0xbe,
  0xad, 0x0b, 0x56, 0xbd, 0x70, 0xcc, 0x09, 0xbd, 0x6b, 0x41, 0x47, 0x3e,
  0xc4, 0xda, 0xb6, 0x3c, 0xfd, 0x68, 0x62, 0x3e, 0x21, 0xa1, 0x02, 0xbe,
  0x10, 0x76, 0xf9, 0x3d, 0x14, 0x83, 0xca, 0xbd, 0x7a, 0x52, 0xf4, 0x3d,
  0x66, 0x50, 0x04, 0x3e, 0x07, 0x84, 0x2f, 0x3e, 0xb8, 0xe0, 0x03, 0x3e,
  0x2b, 0x96, 0x51, 0xbd, 0xe2, 0x83, 0x14, 0x3e, 0x9c, 0xf6, 0x5a, 0xbe,
  0x8e, 0x04, 0x79, 0xbe, 0x94, 0x8a, 0x04, 0xbe, 0x64, 0x65, 0xc0, 0x3c,
  0x1c, 0xfd, 0x7d, 0xbd, 0x03, 0xd7, 0x36, 0xbe, 0x90, 0x4f, 0x22, 0x3e,
  0xb4, 0x60, 0x25, 0xbe, 0xb3, 0xc8, 0x4d, 0x3e, 0x00, 0x46, 0x8a, 0xbe,
  0xd7, 0x36, 0x8d, 0x3e, 0xf1, 0x6c, 0x66, 0x3e, 0x07, 0xd4, 0x47, 0xbe,
  0x56, 0xe6, 0x88, 0x3e, 0xcf, 0x84, 0xde, 0xbd, 0x8a, 0x37, 0x34, 0x3e,
  0x21, 0xa2, 0xf1, 0xbe, 0x63, 0x71, 0xb5, 0xbe, 0x24, 0xee, 0x16, 0xbe,
  0x0e, 0x0d, 0x00, 0xbd, 0x16, 0x4a, 0xcd, 0xbe, 0xdd, 0x4c, 0x13, 0xbe,
  0x3d, 0x6e, 0x1a, 0x3f, 0x6a, 0x67, 0x58, 0x3b, 0xde, 0x8e, 0xe1, 0x3d,
  0x3c, 0x93, 0xa9, 0xbe, 0xf6, 0xd2, 0x54, 0x3e, 0x09, 0x65, 0x18, 0x3d,
  0xb8, 0x08, 0xe4, 0xbd, 0x2c, 0xe1, 0xa8, 0x3e, 0xac, 0x06, 0x5a, 0xbe,
  0x8a, 0x93, 0x72, 0x3d, 0x5f, 0x53, 0x98, 0xbe, 0xc0, 0xfe, 0xec, 0xbe,
  0x96, 0x11, 0x8b, 0xbe, 0x9b, 0x94, 0xcb, 0xbd, 0xbe, 0x61, 0xde, 0xbe,
  0x66, 0x27, 0xf1, 0x3d, 0x05, 0xdf, 0xf4, 0x3d, 0xd6, 0x83, 0x06, 0xbe,
  0xf6, 0x68, 0x64, 0x3e, 0x41, 0x7f, 0xe5, 0xbe, 0x98, 0xda, 0x17, 0xbc,
  0x27, 0x3e, 0x38, 0x3c, 0x59, 0x39, 0xee, 0xbd, 0x9c, 0xee, 0x82, 0x3e,
  0xfd, 0xe0, 0x5a, 0xbe, 0x11, 0x7b, 0x0c, 0x3e, 0xf4, 0x7c, 0x53, 0xbe,
  0x68, 0x1b, 0x71, 0xbe, 0x80, 0x34, 0x0e, 0xbe, 0xdc, 0xa9, 0x8a, 0x3b,
  0x4d, 0xfc, 0xe8, 0xbd, 0x7a, 0x75, 0x16, 0x3e, 0xd5, 0xe6, 0x8c, 0xbd,
  0x52, 0x76, 0x86, 0x3d, 0x2a, 0x09, 0xba, 0xbd, 0x96, 0xa0, 0xcc, 0xbd,
  0xf0, 0xff, 0x2d, 0xbe, 0xd3, 0xaf, 0x8a, 0xbe, 0xb2, 0x7d, 0x48, 0xbe,
  0xb5, 0x4b, 0xf5, 0xbd, 0x3b, 0x64, 0x6b, 0xbe, 0x71, 0xf3, 0x23, 0xbe,
  0x11, 0xd4, 0x85, 0x3b, 0x76, 0xcc, 0x43, 0xbe, 0xc5, 0xd6, 0x3d, 0x3c,
  0xe5, 0x8f, 0x83, 0xbd, 0xb9, 0x9b, 0x83, 0x3d, 0xc3, 0xed, 0x48, 0xbe,
  0xb7, 0x52, 0x99, 0x3d, 0x11, 0x84, 0x2f, 0x3e, 0x9e, 0xdf, 0x34, 0xbe,
  0x0d, 0xf6, 0x2f, 0x3e, 0x92, 0xee, 0x28, 0xbd, 0xd8, 0xe0, 0x41, 0xbd,
  0x1e, 0xbb, 0x03, 0x3e, 0x5d, 0x8d, 0x55, 0xbe, 0x62, 0xaa, 0x4a, 0x3e,
  0xb5, 0xa5, 0xcb, 0x3d, 0xd3, 0x96, 0x0a, 0xbd, 0xb6, 0x43, 0x1a, 0xbe,
  0xa1, 0x78, 0x4f, 0xbe, 0x7c, 0x7b, 0xbe, 0xbe, 0x55, 0x3a, 0x41, 0x3c,
  0xa2, 0xe9, 0x61, 0xbe, 0x95, 0x12, 0x0d, 0x3e, 0x8b, 0xef, 0x10, 0x3d,
  0xe6, 0xc3, 0xa8, 0x3d, 0x85, 0x8f, 0x31, 0x3e, 0x6c, 0x1d, 0xb6, 0xbd,
  0x6a, 0xdd, 0x0d, 0xbe, 0x40, 0x46, 0x44, 0x3d, 0x05, 0x3c, 0x0c, 0x3e,
  0xc8, 0x1e, 0x61, 0xbe, 0xa1, 0x58, 0x76, 0xbd, 0x5e, 0x98, 0x0f, 0xbe,
  0xf5, 0xc4, 0xc4, 0xbd, 0x05, 0xb2, 0x0c, 0xbd, 0x91, 0xf9, 0x22, 0xbe,
  0xaa, 0xc6, 0x84, 0xbb, 0x41, 0xb2, 0xcb, 0x3c, 0x54, 0x7c, 0x62, 0xbe,
  0xb9, 0xe0, 0x93, 0x3b, 0x14, 0x71, 0xdb, 0x3d, 0x2b, 0xc3, 0x03, 0x3d,
  0x0e, 0x28, 0xff, 0x3b, 0x35, 0x5a, 0x5f, 0x3d, 0x53, 0x5f, 0x5a, 0x3c,
  0xba, 0x08, 0xc7, 0xbd, 0x34, 0xd5, 0x01, 0x3e, 0xe5, 0x76, 0xc3, 0xbc,
  0xe6, 0xf8, 0x90, 0x3d, 0xa0, 0xea, 0x0f, 0xbe, 0xd8, 0x8c, 0xf0, 0x3c,
  0x2a, 0xb9, 0xaa, 0xbe, 0x3f, 0x9c, 0xd4, 0x3d, 0x8b, 0x4d, 0x25, 0x3e,
  0x4c, 0x5c, 0x53, 0xbd, 0xaa, 0x5e, 0x0d, 0x3e, 0x4e, 0x87, 0x26, 0xbe,
  0xc2, 0x7b, 0x03, 0x3c, 0x81, 0xb7, 0xab, 0xbd, 0x75, 0x18, 0x46, 0xbe,
  0x4d, 0xb1, 0x09, 0x3e, 0x7b, 0x07, 0x3c, 0x3e, 0x43, 0x0b, 0x8b, 0x3d,
  0xa8, 0x29, 0xae, 0x3d, 0xc4, 0x66, 0x8a, 0x3d, 0xea, 0x0a, 0x17, 0xbe,
  0x77, 0xfe, 0x68, 0xbd, 0x10, 0x23, 0x9f, 0xbe, 0x55, 0xb2, 0x9b, 0x3d,
  0x31, 0x27, 0xf0, 0xbd, 0x6d, 0x65, 0xf1, 0x3d, 0x2c, 0xb5, 0x40, 0xbe,
  0x3e, 0x3d, 0xed, 0xbd, 0xb2, 0x28, 0xb4, 0x3d, 0x34, 0xc4, 0xa0, 0x3d,
  0xdd, 0x1c, 0xd2, 0x3c, 0x52, 0x8f, 0x2c, 0x3d, 0x1d, 0x47, 0xd6, 0xba,
  0x5d, 0xb2, 0xe8, 0x3d, 0xe4, 0x24, 0x82, 0xbe, 0x77, 0x20, 0x16, 0xbd,
  0xd2, 0x0a, 0x8a, 0xbd, 0xaf, 0x57, 0xde, 0xbd, 0x0c, 0x81, 0x91, 0xbe,
  0x92, 0xbf, 0xcb, 0x3b, 0x8b, 0xba, 0xee, 0x3c, 0x79, 0x63, 0x93, 0x3d,
  0xff, 0x1e, 0x35, 0x3e, 0xa5, 0x90, 0x53, 0xbe, 0x88, 0x5d, 0x21, 0x3d,
  0xf1, 0x4d, 0xbe, 0xbd, 0x53, 0x8b, 0x70, 0x3d, 0x66, 0xa8, 0xc9, 0xbd,
  0xd4, 0x4b, 0x13, 0x3d, 0xd2, 0x5c, 0xa2, 0x3c, 0xcb, 0xab, 0x49, 0x3d,
  0xb8, 0x75, 0x56, 0xbc, 0x03, 0x98, 0x1c, 0xbe, 0x9a, 0x4a, 0xa3, 0xbd,
  0xf7, 0x85, 0x6b, 0xbe, 0x05, 0xb0, 0xd7, 0xbd, 0xe3, 0x1e, 0x8c, 0x3d,
  0x74, 0xbc, 0xa9, 0xbe, 0x9f, 0xaf, 0x79, 0xbe, 0xe6, 0x16, 0xbb, 0xbe,
  0x74, 0xe8, 0x25, 0xbe, 0xa4, 0xd9, 0xe8, 0xbd, 0xe9, 0x6d, 0xe3, 0xbe,
  0xe8, 0xdd, 0x1d, 0xbe, 0x70, 0x56, 0xa8, 0xbe, 0x87, 0xe2, 0xb8, 0x3d,
  0xc6, 0xc7, 0xcc, 0xbe, 0xb2, 0xce, 0x47, 0xbd, 0x55, 0x17, 0x9d, 0xbe,
  0xea, 0x1d, 0xb5, 0xbe, 0x92, 0x1f, 0x27, 0xbe, 0x9f, 0xa7, 0xec, 0xbd,
  0x96, 0xe3, 0xc3, 0x3c, 0xa9, 0x97, 0x07, 0xbe, 0x91, 0xc6, 0x3d, 0xbe,
  0x1d, 0xfb, 0x9d, 0xbe, 0x5d, 0x82, 0x45, 0xbc, 0x66, 0xd5, 0x98, 0xbe,
  0xa5, 0x0e, 0xee, 0xbd, 0xac, 0xc6, 0xbe, 0x3d, 0xa2, 0x8b, 0x8f, 0xbe,
  0x9d, 0x00, 0x4b, 0x3d, 0x96, 0x18, 0xbb, 0x3d, 0x68, 0x97, 0xb5, 0xbd,
  0xbc, 0x75, 0x04, 0xbd, 0xee, 0xa1, 0xa7, 0xbe, 0x7b, 0xc1, 0x2d, 0xbe,
  0xfe, 0x6b, 0x98, 0xbd, 0xde, 0x9d, 0x2b, 0x3e, 0xdd, 0x2b, 0xeb, 0xbd,
  0x9f, 0x6c, 0x2a, 0xbc, 0xea, 0xfe, 0xda, 0xbe, 0x23, 0x62, 0x70, 0xbe,
  0x1c, 0xab, 0x4b, 0xbe, 0x0f, 0x16, 0x84, 0xbe, 0x47, 0x3b, 0x68, 0xbd,
  0x17, 0xb3, 0x72, 0x3d, 0x41, 0x4d, 0x5e, 0xbe, 0xc2, 0x41, 0x9f, 0xbd,
  0x50, 0xa6, 0x30, 0xbd, 0x45, 0x21, 0xe4, 0x3c, 0x73, 0x6b, 0xbb, 0xbd,
  0x62, 0x31, 0x12, 0xbe, 0xe8, 0x47, 0x8a, 0xbe, 0x57, 0x56, 0x00, 0x3e,
  0xea, 0xd6, 0x4c, 0xbe, 0xbb, 0x2e, 0x84, 0xbe, 0xa1, 0xe1, 0xe3, 0xbe,
  0xb5, 0x98, 0xe9, 0xbd, 0x43, 0x9e, 0xf1, 0xbd, 0x2e, 0x65, 0xbf, 0xbe,
  0x35, 0x55, 0x90, 0xbe, 0xc8, 0x47, 0xcb, 0xbe, 0xb0, 0x2a, 0x97, 0x3c,
  0x7c, 0x46, 0x9c, 0xbe, 0xe3, 0x3f, 0x96, 0xbe, 0x67, 0x11, 0x3b, 0xbd,
  0xab, 0xfd, 0x8d, 0xbe, 0x63, 0x46, 0x2c, 0xbe, 0xf8, 0x5e, 0xb4, 0xbe,
  0x4d, 0xf7, 0xfa, 0x3a, 0x35, 0x0d, 0xa8, 0xbd, 0x7e, 0x8c, 0xb1, 0xbb,
  0x7c, 0xd1, 0x1c, 0xbe, 0xa0, 0x8a, 0x0e, 0x3c, 0x13, 0x9a, 0x06, 0xbe,
  0x79, 0xf0, 0x4a, 0xbe, 0x1b, 0xc3, 0xce, 0xbd, 0xce, 0x35, 0x52, 0xbe,
  0x78, 0xd0, 0x06, 0x3b, 0x74, 0xc5, 0x69, 0xbd, 0x53, 0x16, 0xa2, 0xbe,
  0x71, 0x0a, 0xd2, 0xbd, 0x98, 0xc3, 0x73, 0x3e, 0x8d, 0xac, 0x81, 0xbe,
  0x4b, 0xb0, 0x9b, 0x3e, 0xc4, 0x83, 0x98, 0xbe, 0x3d, 0x88, 0xdd, 0x3c,
  0x3c, 0xe0, 0xf5, 0x3d, 0x4e, 0x5a, 0xa9, 0x3c, 0xa6, 0x32, 0x43, 0x3e,
  0x6c, 0xb0, 0x0c, 0xbe, 0xb8, 0xa0, 0x43, 0xbd, 0x74, 0xb7, 0x87, 0x3e,
  0x94, 0xea, 0x98, 0xba, 0x28, 0xf6, 0xdd, 0x3e, 0x36, 0xe8, 0x77, 0x3d,
  0xfa, 0x90, 0xe9, 0x3c, 0xe2, 0xc7, 0xa3, 0xbd, 0xae, 0x2e, 0x87, 0x3e,
  0x47, 0x57, 0xf3, 0x3b, 0x25, 0xb5, 0x64, 0x3e, 0x46, 0x05, 0x80, 0xbe,
  0xe3, 0x82, 0x91, 0xbe, 0x4e, 0xb1, 0x9a, 0xbd, 0x6b, 0x26, 0x51, 0x3e,
  0xab, 0x91, 0xd6, 0x3d, 0x0d, 0xa8, 0x3d, 0xbe, 0x6d, 0x92, 0xdd, 0x3c,
  0x71, 0xf7, 0xb3, 0xbd, 0x4e, 0xb4, 0x8a, 0x3c, 0x88, 0x41, 0x8f, 0x3e,
  0xa2, 0x43, 0x16, 0x3d, 0x27, 0x76, 0x82, 0x3e, 0xe8, 0xd6, 0x53, 0x3e,
  0x29, 0x4d, 0x6b, 0xbd, 0xb6, 0xd7, 0xe4, 0x3d, 0x8f, 0x64, 0xc5, 0x3e,
  0x58, 0x81, 0x28, 0xbf, 0xaa, 0x77, 0x6a, 0x3e, 0x52, 0x81, 0xf5, 0xbb,
  0x96, 0xb3, 0x83, 0x3b, 0xe7, 0x47, 0x33, 0xbd, 0xfe, 0xc0, 0x72, 0x3e,
  0x5b, 0xc9, 0xf9, 0x3d, 0xd8, 0x65, 0x7f, 0xbe, 0x24, 0x90, 0xd2, 0x3d,
  0x47, 0x5c, 0x0f, 0xbe, 0xfd, 0x29, 0x43, 0x3d, 0xbe, 0x6c, 0x6c, 0xbe,
  0x93, 0x40, 0xa7, 0xbe, 0x66, 0xb6, 0x2b, 0xbe, 0x28, 0xe8, 0x16, 0x3d,
  0x16, 0x49, 0xf8, 0xbd, 0x96, 0xde, 0xa6, 0xbe, 0x75, 0x79, 0x24, 0xbc,
  0x54, 0x1e, 0x39, 0xbe, 0xb7, 0x75, 0x4a, 0x3e, 0x21, 0x31, 0x00, 0xbc,
  0xe0, 0x44, 0x09, 0x3e, 0x8b, 0x85, 0x70, 0x3e, 0x58, 0x7f, 0x12, 0x3e,
  0xd3, 0x02, 0x98, 0x3e, 0xa9, 0x27, 0x37, 0xbd, 0x8c, 0x90, 0x51, 0x3e,
  0xce, 0x8b, 0x97, 0xbe, 0x84, 0x8d, 0x96, 0xbe, 0xb7, 0xfd, 0x91, 0xbe,
  0x5b, 0xad, 0x9a, 0xbd, 0xbb, 0x4a, 0x52, 0xbd, 0x72, 0x64, 0xfa, 0x3c,
  0x45, 0x7c, 0x2b, 0x3e, 0x88, 0xcc, 0x69, 0xbe, 0x83, 0x92, 0x92, 0x3e,
  0x2b, 0xf8, 0x5f, 0x3d, 0x59, 0x95, 0x6d, 0x3e, 0x05, 0xe3, 0x6b, 0x3e,
  0xa4, 0x2e, 0xf2, 0x3e, 0x9c, 0x25, 0xb4, 0x3e, 0xfd, 0x72, 0x62, 0xbd,
  0xe0, 0x8b, 0xbc, 0x3e, 0x15, 0xad, 0x2e, 0xbd, 0x3c, 0x32, 0x4e, 0xbe,
  0xed, 0xe4, 0x7b, 0xbd, 0xa3, 0xd8, 0x83, 0xbd, 0x79, 0x19, 0x0f, 0x3e,
  0x3d, 0x86, 0xdb, 0xbd, 0x5f, 0xd9, 0x02, 0x3e, 0x9b, 0x48, 0x32, 0xbd,
  0x46, 0x4b, 0x5e, 0x3e, 0xc1, 0x6b, 0x2b, 0xbc, 0xa8, 0xe1, 0x04, 0x3e,
  0xd6, 0x01, 0x38, 0x3e, 0x3a, 0xf7, 0x68, 0x3e, 0x30, 0xe5, 0x20, 0x3e,
  0xe1, 0x0b, 0xaa, 0xbd, 0x91, 0x18, 0x86, 0x3e, 0xdd, 0x82, 0xb8, 0x3d,
  0xdb, 0x1e, 0x8a, 0xbe, 0xae, 0xc3, 0xd1, 0xbd, 0x91, 0x25, 0x2c, 0xbc,
  0x9e, 0x79, 0xe2, 0xbd, 0x1a, 0xca, 0x20, 0x3d, 0x27, 0x8c, 0x72, 0x3e,
  0x56, 0x1a, 0x09, 0x3d, 0xba, 0x29, 0x22, 0x3e, 0x7f, 0xbb, 0x7a, 0xbe,
  0xa9, 0x3a, 0x88, 0x3e, 0xfa, 0xea, 0x23, 0x3e, 0xf1, 0x89, 0x6f, 0xbe,
  0x16, 0xe2, 0x65, 0x3d, 0xe2, 0xf8, 0x02, 0xbf, 0x5b, 0x0f, 0x85, 0x3e,
  0xb2, 0xfc, 0xaa, 0xbe, 0xa3, 0x7c, 0xa8, 0xbe, 0x1a, 0x39, 0xdd, 0xbe,
  0xc8, 0x31, 0x12, 0xbd, 0x70, 0x1b, 0xef, 0xbe, 0x8e, 0xf0, 0xa2, 0x3c,
  0xc4, 0xe0, 0x9c, 0x3e, 0xd6, 0xc2, 0xf1, 0xbc, 0xf8, 0x56, 0x4f, 0x3d,
  0x28, 0x26, 0xe2, 0xbe, 0xd2, 0x36, 0x70, 0x3e, 0x84, 0xed, 0x7e, 0x3e,
  0x40, 0xa3, 0x87, 0xbe, 0xc3, 0x1c, 0xb9, 0x3e, 0x07, 0xd2, 0xcc, 0xbe,
  0x10, 0xf0, 0x2a, 0x3e, 0xe9, 0xf0, 0xf6, 0xbe, 0x66, 0x73, 0xb6, 0xbe,
  0x64, 0x78, 0x0c, 0x3d, 0xf6, 0x4d, 0x54, 0xbd, 0x9c, 0x72, 0xae, 0xbe,
  0x32, 0xbc, 0x37, 0xbd, 0x96, 0xed, 0x0e, 0x3c, 0x3b, 0x3b, 0xaf, 0x3c,
  0x44, 0x6b, 0x11, 0x3e, 0x0b, 0x6d, 0x9c, 0xbe, 0xaf, 0x6d, 0x03, 0xbd,
  0x00, 0x25, 0x5c, 0xbc, 0xa4, 0xe5, 0xe6, 0xbd, 0x7b, 0x14, 0xd4, 0x3d,
  0x9d, 0x09, 0x01, 0x3d, 0x2f, 0x17, 0xfb, 0x3c, 0x18, 0xdd, 0x93, 0xbd,
  0xd8, 0x00, 0xfe, 0xbd, 0xe3, 0xa6, 0xc9, 0x3c, 0x01, 0x77, 0x78, 0xbd,
  0xca, 0xeb, 0xd4, 0xbd, 0xcf, 0xda, 0xf4, 0x3d, 0x11, 0x1d, 0xd1, 0x3d,
  0x32, 0x54, 0x79, 0xbd, 0x35, 0x5b, 0x83, 0xbe, 0x54, 0x9d, 0x00, 0xbe,
  0x27, 0x25, 0x26, 0xbe, 0x71, 0x3f, 0x1b, 0xbe, 0xf6, 0x05, 0x2b, 0xbe,
  0x98, 0x10, 0x39, 0x3e, 0x71, 0xb1, 0xc6, 0xbd, 0xba, 0x4b, 0x6a, 0xbd,
  0x9a, 0xba, 0x29, 0xbe, 0xd2, 0x46, 0xee, 0xbb, 0xb0, 0xf4, 0x69, 0xbe,
  0x6f, 0xe5, 0x65, 0xbe, 0x89, 0xb2, 0xdd, 0xbd, 0x98, 0x26, 0x68, 0xbe,
  0x49, 0x97, 0x8f, 0xbd, 0x52, 0x92, 0xb4, 0x3d, 0x37, 0xc0, 0x7d, 0x3d,
  0xd9, 0xc2, 0x38, 0xbe, 0x30, 0x0d, 0x46, 0xbe, 0x2d, 0x0e, 0x36, 0x3d,
  0x9d, 0x67, 0xdf, 0x3d, 0xc7, 0x10, 0xba, 0x3d, 0xfa, 0x02, 0x3c, 0xbe,
  0x9e, 0x62, 0x82, 0x3d, 0xaa, 0x15, 0xaf, 0x3d, 0x13, 0x60, 0x51, 0xbe,
  0xb1, 0x99, 0x7a, 0xbd, 0x29, 0x99, 0x9d, 0xbd, 0x5e, 0x7f, 0x09, 0x3e,
  0x4b, 0x9f, 0x0d, 0x3e, 0xa9, 0x49, 0x60, 0x3d, 0x71, 0x91, 0x16, 0x3e,
  0x4f, 0x7c, 0x2f, 0xbe, 0xc1, 0xa4, 0x5c, 0x3e, 0x28, 0xf1, 0xef, 0xbd,
  0xbb, 0x00, 0xee, 0x3d, 0x5b, 0x88, 0xe0, 0x3d, 0x8c, 0xa7, 0x08, 0xbe,
  0x0a, 0x10, 0x3a, 0xbe, 0x81, 0x1a, 0x2f, 0x3e, 0xc6, 0xc9, 0x63, 0x3d,
  0x4d, 0x89, 0x81, 0xbe, 0x0d, 0x26, 0x7b, 0xbd, 0x37, 0xe8, 0x11, 0xbe,
  0x85, 0xa2, 0x5c, 0x3e, 0x26, 0xff, 0x31, 0xbe, 0xf0, 0xa8, 0x14, 0x3a,
  0xed, 0x1e, 0xb6, 0xbd, 0xa8, 0xee, 0xc0, 0x3d, 0xee, 0xe4, 0x1d, 0x3d,
  0x85, 0x46, 0x3e, 0xbe, 0xb0, 0xb3, 0xc6, 0xbd, 0x4d, 0x88, 0xcc, 0x3c,
  0x02, 0x15, 0x1c, 0xbd, 0xb5, 0x20, 0x20, 0xbe, 0x1c, 0xe3, 0x10, 0xbd,
  0x28, 0x0d, 0x4e, 0xbe, 0x14, 0x52, 0x44, 0xbe, 0x42, 0xbe, 0x7f, 0x3d,
  0xb9, 0x94, 0x75, 0xbe, 0x1d, 0xbf, 0x24, 0xbc, 0x8e, 0xd7, 0x92, 0xbd,
  0xd2, 0x73, 0xc3, 0x3c, 0x99, 0x97, 0x75, 0x3d, 0x64, 0xe1, 0xb0, 0xbc,
  0x10, 0x07, 0x0f, 0xbd, 0xe4, 0x09, 0x2c, 0xbc, 0x9b, 0xfd, 0x1c, 0xbe,
  0x78, 0x91, 0x29, 0x3d, 0x5e, 0x4f, 0x9b, 0x3d, 0x96, 0x94, 0x33, 0xbe,
  0xc8, 0x08, 0x08, 0x3e, 0xb5, 0xaf, 0xf8, 0xbd, 0xd5, 0xc4, 0x22, 0x3e,
  0x43, 0xe3, 0x6d, 0x3d, 0xda, 0x3b, 0x77, 0xbe, 0x39, 0xbd, 0x05, 0x3e,
  0x36, 0x98, 0x19, 0xbe, 0xa1, 0x5d, 0x21, 0x3d, 0x2a, 0x65, 0x68, 0x3d,
  0x65, 0xbf, 0xd9, 0xbd, 0xf4, 0x02, 0xc0, 0x3d, 0x47, 0x32, 0x1d, 0xbe,
  0x1e, 0x63, 0x97, 0x3d, 0x84, 0x6e, 0x35, 0xbd, 0x1f, 0x7d, 0x38, 0xbe,
  0x2c, 0x21, 0x08, 0xbe, 0xef, 0x6f, 0x21, 0xbe, 0x2c, 0xea, 0xb8, 0xbd,
  0x7b, 0x35, 0xe5, 0x3b, 0xd9, 0x7f, 0x80, 0x3d, 0xcb, 0x06, 0x8f, 0xbd,
  0x90, 0xc6, 0x86, 0xbe, 0x24, 0x06, 0x55, 0x3b, 0xa1, 0x7f, 0x2f, 0xbe,
  0xae, 0xdb, 0x0e, 0xbe, 0x99, 0x9e, 0x1a, 0xbd, 0x7e, 0x87, 0x73, 0xbe,
  0xc3, 0xdc, 0x70, 0xbd, 0x2c, 0x8a, 0xba, 0x3d, 0xca, 0x00, 0xd1, 0xbd,
  0x27, 0x61, 0x43, 0xbc, 0xbd, 0xcf, 0x37, 0xbd, 0xc1, 0x15, 0xd2, 0xbd,
  0xa8, 0xf0, 0xa4, 0x3d, 0x82, 0x6e, 0x59, 0xbd, 0x8b, 0xa9, 0xee, 0xbd,
  0x54, 0x56, 0x66, 0xbd, 0x6c, 0x13, 0xb3, 0x3c, 0x34, 0xa9, 0x6f, 0xbd,
  0x1d, 0x74, 0x46, 0x3d, 0x65, 0x4c, 0x9b, 0x39, 0x44, 0xb5, 0x21, 0xbe,
  0x24, 0x74, 0xed, 0xbd, 0x61, 0x57, 0x01, 0xbe, 0xdb, 0xb5, 0xea, 0x3b,
  0x09, 0x92, 0xb9, 0xbd, 0x67, 0x8c, 0xf4, 0x3d, 0x08, 0x34, 0x45, 0x3c,
  0x2c, 0x33, 0xb8, 0xbd, 0x38, 0x7f, 0xcf, 0x3d, 0x01, 0xe1, 0x0c, 0xbe,
  0xbd, 0x66, 0x58, 0x3d, 0xb6, 0x40, 0x42, 0xbe, 0x28, 0x7d, 0xf2, 0x3d,
  0xe6, 0x81, 0x28, 0x3e, 0x26, 0xa1, 0xf0, 0x3a, 0x94, 0x1b, 0x53, 0x3c,
  0x53, 0xf3, 0x15, 0xbe, 0xb0, 0xd4, 0x69, 0x3d, 0xdd, 0x39, 0xad, 0xbd,
  0x54, 0xa0, 0x4f, 0xbe, 0xab, 0xe8, 0xf5, 0x3d, 0x74, 0x16, 0x6a, 0xbe,
  0xd0, 0x18, 0xba, 0x3d, 0x5d, 0xe9, 0x02, 0x3e, 0x12, 0xd6, 0x27, 0x3e,
  0x58, 0x5f, 0xa5, 0x3d, 0xa8, 0x3c, 0x6e, 0x3d, 0xfd, 0x9f, 0xbe, 0xbe,
  0x94, 0xaa, 0x22, 0xbe, 0x32, 0x09, 0x1d, 0xbc, 0x4f, 0x4b, 0x29, 0x3d,
  0x33, 0x58, 0x9f, 0xbd, 0x52, 0xb9, 0x64, 0xbd, 0x0f, 0xc2, 0x2c, 0xbe,
  0x6b, 0xa3, 0xfa, 0x3c, 0xd3, 0x89, 0xb3, 0xbd, 0x98, 0xf2, 0x4d, 0xbe,
  0xc0, 0x9b, 0x97, 0xbd, 0xa6, 0x13, 0x2d, 0x3e, 0xeb, 0xa8, 0xd6, 0x3d,
  0xb2, 0xc0, 0x37, 0x3e, 0x4b, 0x04, 0xbb, 0xbd, 0x57, 0x93, 0x60, 0x3b,
  0x4f, 0x63, 0xae, 0xbe, 0x44, 0x05, 0x5f, 0xbd, 0x4f, 0xe6, 0x63, 0xbe,
  0x22, 0x87, 0x7d, 0x3d, 0xea, 0x08, 0x18, 0x3d, 0xac, 0x17, 0xbd, 0x3b,
  0xec, 0xc4, 0xf7, 0xbd, 0xf1, 0xda, 0x07, 0x3d, 0x28, 0x2f, 0x7d, 0x3d,
  0x92, 0x77, 0x19, 0x3e, 0x95, 0xc6, 0xce, 0xbd, 0x71, 0x0d, 0x5e, 0x3d,
  0xcb, 0xea, 0x4c, 0xbe, 0x0a, 0x06, 0xcd, 0xbd, 0x1e, 0xeb, 0x67, 0xbe,
  0x31, 0xc1, 0xcc, 0x3c, 0xa6, 0x33, 0xd1, 0xbd, 0x50, 0x69, 0x47, 0xbe,
  0x2c, 0x04, 0xc8, 0xbd, 0x05, 0x8a, 0x5c, 0xbe, 0x8b, 0x77, 0x1f, 0x3e,
  0xa3, 0x6d, 0x7d, 0xbe, 0x12, 0xb5, 0x3b, 0x3e, 0x06, 0x21, 0xbc, 0xbc,
  0x61, 0x48, 0x88, 0xbe, 0x05, 0x2d, 0x73, 0xbe, 0x24, 0x10, 0x22, 0xbe,
  0x87, 0x89, 0xe5, 0x3d, 0xfc, 0x6b, 0x01, 0x3e, 0x36, 0x26, 0x55, 0xbd,
  0x0e, 0x92, 0x51, 0xbe, 0xe9, 0xb7, 0x3d, 0x3e, 0xee, 0x66, 0x91, 0xbe,
  0x98, 0x0a, 0xf7, 0x3d, 0x42, 0x6a, 0x3b, 0x3d, 0x35, 0x55, 0x7b, 0xbe,
  0x66, 0xd2, 0xb4, 0x3d, 0x8c, 0x91, 0x18, 0x3d, 0x91, 0x04, 0x03, 0xbe,
  0xb7, 0x71, 0xba, 0xbb, 0x88, 0xe4, 0x97, 0xbb, 0xa1, 0x69, 0x66, 0xbe,
  0xf9, 0x72, 0xc7, 0xbd, 0x82, 0x84, 0x0c, 0xbc, 0x8d, 0x21, 0x43, 0xbd,
  0xb8, 0x2a, 0x85, 0xbd, 0xcf, 0xc0, 0x34, 0x3c, 0xe9, 0x7f, 0x1d, 0x3e,
  0x37, 0x9b, 0x52, 0xbe, 0x93, 0x20, 0xd7, 0xbd, 0x11, 0x8b, 0x3f, 0xbe,
  0x1e, 0xb5, 0x00, 0x3d, 0x7e, 0x29, 0x5a, 0xbe, 0xce, 0x55, 0x97, 0x3d,
  0xc3, 0x57, 0x2f, 0xbe, 0xb9, 0xdc, 0x01, 0xbe, 0x4c, 0x4b, 0x37, 0xbe,
  0x75, 0x93, 0x29, 0xbe, 0xaf, 0xbb, 0xc8, 0x3c, 0x2d, 0x77, 0x1c, 0xbd,
  0x8a, 0xd8, 0x40, 0xbe, 0x79, 0x64, 0x6d, 0x3d, 0xbb, 0x6c, 0x47, 0xbe,
  0xef, 0x0a, 0x6b, 0xbe, 0xdd, 0x76, 0xb6, 0xbe, 0xfa, 0xce, 0x8d, 0x3d,
  0x0c, 0x0f, 0x8d, 0x3d, 0x20, 0x44, 0x3e, 0xbe, 0xda, 0x6c, 0xc0, 0x3d,
  0x57, 0xc3, 0x03, 0xbf, 0x0a, 0x1b, 0x00, 0xbe, 0xd3, 0xf2, 0x6b, 0xbc,
  0x8b, 0xfb, 0xed, 0xbe, 0x7e, 0xe7, 0x2b, 0xbe, 0x93, 0x2c, 0x09, 0x3e,
  0xf1, 0xdf, 0x41, 0x3d, 0x96, 0x30, 0xb5, 0xbe, 0x6b, 0x04, 0x14, 0xbc,
  0xed, 0x3c, 0x10, 0xbe, 0x87, 0xfe, 0xab, 0xbe, 0x0a, 0xd4, 0x32, 0xbe,
  0xb8, 0x72, 0xa9, 0xbd, 0x2b, 0x9d, 0xb0, 0x3c, 0x6b, 0x01, 0x84, 0xbe,
  0xb2, 0xbb, 0xb3, 0x3c, 0x01, 0xd7, 0xe5, 0xbe, 0x6c, 0xd1, 0xfe, 0xbd,
  0xc3, 0xf0, 0xa4, 0xbd, 0x16, 0x13, 0x6d, 0xbe, 0x43, 0x5a, 0xea, 0xbd,
  0x4f, 0x25, 0x14, 0xbc, 0x12, 0x73, 0x2e, 0xbe, 0x63, 0x55, 0x9e, 0xbe,
  0xaf, 0xcd, 0x00, 0xbe, 0x02, 0xf6, 0xf5, 0xbd, 0xd3, 0x7c, 0x8f, 0xbe,
  0xe1, 0xde, 0x31, 0xbe, 0x3e, 0xc8, 0xda, 0xbb, 0x5e, 0x6c, 0xd4, 0xbc,
  0xd8, 0x04, 0xbf, 0xbd, 0x61, 0x6b, 0x46, 0x3d, 0x1a, 0xce, 0xa1, 0xbe,
  0x3a, 0x40, 0x2a, 0x3c, 0xdd, 0x84, 0x33, 0x3d, 0xaf, 0x44, 0x75, 0x3c,
  0xcf, 0x9e, 0x74, 0xbe, 0x33, 0xe6, 0xd8, 0xbd, 0x64, 0x74, 0x06, 0xbe,
  0x11, 0xdc, 0xae, 0xbe, 0xa6, 0x59, 0x8b, 0xbd, 0xf1, 0xab, 0x63, 0xbd,
  0xa3, 0x4b, 0x11, 0xbe, 0x13, 0xaa, 0x0c, 0xbe, 0x20, 0x34, 0x47, 0xbd,
  0xbb, 0xd6, 0xf1, 0x3d, 0xe8, 0x47, 0x84, 0xbc, 0x51, 0xdc, 0xc9, 0xbd,
  0x47, 0xd4, 0x0e, 0xbf, 0x10, 0x8f, 0x82, 0xbe, 0x75, 0x88, 0x83, 0x3d,
  0x8a, 0x0e, 0xfe, 0xbd, 0xe6, 0x5b, 0xdf, 0xbd, 0x7f, 0x0c, 0x5e, 0xbd,
  0x88, 0xa2, 0x5d, 0xbe, 0x4b, 0x73, 0xd9, 0xbe, 0xd7, 0xcb, 0xad, 0xbd,
  0xc1, 0xba, 0x9f, 0xbd, 0xc4, 0xc5, 0x92, 0x3d, 0x4e, 0xe9, 0xa5, 0xbe,
  0xdc, 0x97, 0x1d, 0x3e, 0x9e, 0x1f, 0xaa, 0xbc, 0x9d, 0x97, 0x71, 0xbe,
  0x88, 0x4a, 0x15, 0x3e, 0x14, 0x54, 0x6b, 0x3d, 0xb9, 0xe8, 0x87, 0x3e,
  0x92, 0xbc, 0x23, 0x3e, 0x4f, 0x06, 0xcc, 0xbd, 0x82, 0x53, 0x7a, 0x3e,
  0x27, 0xaa, 0xd4, 0xbb, 0x15, 0x94, 0x86, 0x3e, 0xb4, 0xdd, 0x1c, 0x3e,
  0xaf, 0xf4, 0x98, 0x3e, 0x07, 0xe4, 0x14, 0x3d, 0x4b, 0x3b, 0xc8, 0x3e,
  0x49, 0x03, 0x53, 0xbd, 0x8d, 0x75, 0xc4, 0x3e, 0x4b, 0x64, 0x9d, 0xbe,
  0x12, 0x1b, 0x9a, 0xbe, 0xaf, 0xd7, 0x4a, 0x3d, 0xde, 0xaf, 0xe5, 0x3d,
  0xcb, 0x71, 0x8c, 0x3e, 0x69, 0x50, 0xe8, 0xbd, 0x71, 0x95, 0xc0, 0xbd,
  0xb2, 0xed, 0x57, 0x3e, 0xaf, 0x6f, 0x0b, 0x3d, 0x2c, 0xa4, 0x3d, 0x3e,
  0xcf, 0x76, 0xa4, 0x3d, 0xda, 0x98, 0xec, 0x3e, 0x67, 0x39, 0x28, 0x3e,
  0xc9, 0xdc, 0x62, 0x3e, 0xb1, 0xab, 0x00, 0xbb, 0x01, 0x5c, 0x0b, 0x3e,
  0xa7, 0x30, 0x86, 0xbe, 0xcb, 0x71, 0xbe, 0xbc, 0x99, 0x89, 0xaa, 0xbd,
  0xec, 0xa4, 0xb2, 0xbe, 0x7c, 0x68, 0x8a, 0xbc, 0x18, 0x38, 0x29, 0x3e,
  0x5e, 0x7a, 0x33, 0xbe, 0x56, 0xa6, 0x57, 0x3e, 0xe1, 0xdd, 0x5b, 0xbe,
  0xff, 0x42, 0xde, 0xbd, 0xd7, 0x90, 0xa7, 0xbe, 0x26, 0xab, 0x24, 0xbe,
  0x7a, 0xb8, 0x71, 0xbe, 0x15, 0xd6, 0x00, 0xbe, 0x5c, 0x1f, 0x01, 0xbe,
  0xb3, 0xf6, 0x74, 0x3e, 0x07, 0xe9, 0x5e, 0xbd, 0x31, 0xf3, 0x32, 0x3e,
  0x4e, 0x06, 0xb0, 0x3e, 0x6a, 0x81, 0x67, 0x3c, 0xd7, 0xc4, 0xa9, 0x3d,
  0xf7, 0x3f, 0xbf, 0x3c, 0x8b, 0x7f, 0x38, 0xbe, 0xed, 0x63, 0x80, 0x3d,
  0xd0, 0x90, 0x66, 0xbe, 0x60, 0x01, 0x18, 0xbe, 0x60, 0x53, 0x8b, 0xbe,
  0x7b, 0x80, 0xad, 0x3d, 0xc1, 0xdc, 0x69, 0x3e, 0xcd, 0x8d, 0xf2, 0x3e,
  0xff, 0x83, 0xbd, 0xbe, 0xcb, 0x83, 0x68, 0xbd, 0x84, 0x16, 0xa8, 0xbd,
  0x9c, 0xf1, 0x19, 0x3f, 0x87, 0x7a, 0xd7, 0x3e, 0x0c, 0xca, 0x83, 0x3e,
  0xb5, 0x25, 0x89, 0x3e, 0x4e, 0xcc, 0x1e, 0xbe, 0x93, 0xd5, 0x35, 0x3d,
  0x0e, 0xc3, 0x5f, 0xbe, 0x30, 0x23, 0xd1, 0xbd, 0x7f, 0x15, 0xac, 0x3c,
  0x57, 0x7a, 0xed, 0x3e, 0xd6, 0x63, 0x4b, 0x3e, 0xdd, 0x28, 0x3b, 0x3e,
  0x10, 0x77, 0xc3, 0x3e, 0x74, 0x22, 0x90, 0xbe, 0xa1, 0x37, 0xdb, 0xbd,
  0xd2, 0x4e, 0x4d, 0x3e, 0xf6, 0x50, 0xab, 0x3d, 0xff, 0xa9, 0xaf, 0x3e,
  0x94, 0x42, 0x2f, 0xbd, 0x51, 0xa9, 0x9b, 0x3e, 0xae, 0x2d, 0x04, 0x3e,
  0x3f, 0x89, 0x96, 0x3e, 0x04, 0x02, 0x82, 0xbd, 0x72, 0xd0, 0x51, 0x3c,
  0x80, 0x35, 0xfd, 0x3d, 0x88, 0x22, 0xfc, 0xbc, 0xd6, 0x6f, 0x67, 0xbc,
  0x6c, 0xf7, 0xb9, 0x3e, 0x3d, 0x17, 0xbe, 0x3e, 0x84, 0x93, 0xcc, 0xbe,
  0xd4, 0x24, 0xfb, 0x39, 0xef, 0x28, 0xb9, 0x3b, 0x73, 0x77, 0xaf, 0x3d,
  0xde, 0x72, 0x92, 0x3e, 0x58, 0x39, 0xad, 0x3b, 0xa4, 0x33, 0x59, 0x3e,
  0x62, 0x07, 0x0b, 0x3e, 0x77, 0x05, 0xcc, 0xbd, 0xfa, 0xa7, 0x5f, 0x3e,
  0x1b, 0x15, 0x0d, 0x3d, 0x22, 0xe4, 0xa7, 0x3e, 0xf2, 0xd1, 0xf4, 0x3d,
  0x49, 0xf8, 0xf4, 0x3e, 0x47, 0xb8, 0xc6, 0x3e, 0x6c, 0xaa, 0xf7, 0x3e,
  0x95, 0xbc, 0x98, 0xbe, 0x11, 0xf7, 0xf0, 0x3d, 0x68, 0x52, 0x0d, 0x3e,
  0x5e, 0x69, 0xa5, 0x3e, 0xc6, 0x9a, 0x0b, 0x3e, 0x08, 0xba, 0x28, 0x3e,
  0x39, 0x3a, 0xf3, 0xbd, 0xb6, 0xeb, 0xad, 0xbc, 0x36, 0xf9, 0xa9, 0xbb,
  0x50, 0x98, 0x56, 0xbd, 0xb6, 0x20, 0x05, 0x3e, 0xbc, 0x64, 0xfb, 0x3b,
  0x45, 0x31, 0x43, 0xbe, 0x78, 0x15, 0x46, 0x3d, 0x00, 0x79, 0x43, 0x3e,
  0xbd, 0x08, 0xf9, 0x3e, 0xf1, 0x1c, 0x06, 0xbf, 0x9e, 0xe7, 0x0c, 0x3e,
  0x34, 0xec, 0xc8, 0x3e, 0x28, 0xcc, 0x41, 0x3d, 0xfb, 0x11, 0xd6, 0x3e,
  0xd7, 0x33, 0x83, 0xbe, 0x47, 0x04, 0xe0, 0x3c, 0x00, 0x03, 0x3a, 0xbe,
  0xcf, 0x80, 0xe1, 0x3c, 0xfe, 0xf2, 0x34, 0xbd, 0x43, 0xf6, 0xd3, 0xbd,
  0xd2, 0xe0, 0x04, 0x3d, 0x75, 0x92, 0xe9, 0xbd, 0xd5, 0x05, 0x48, 0x3e,
  0x5a, 0xbf, 0x79, 0x3e, 0x8a, 0xb0, 0x2b, 0x3c, 0xc0, 0xf6, 0xa7, 0xbe,
  0x81, 0x3a, 0x2b, 0xbd, 0x60, 0xed, 0x53, 0x3e, 0x25, 0x5a, 0x63, 0x3e,
  0x16, 0x36, 0xf8, 0x3e, 0x74, 0x1f, 0x06, 0xbe, 0x5e, 0x37, 0x38, 0x3b,
  0xd9, 0x9e, 0x5f, 0xbe, 0x3a, 0x62, 0x19, 0x3c, 0x96, 0x07, 0x1a, 0xbe,
  0xb4, 0x86, 0x21, 0xbe, 0x19, 0xc9, 0xa0, 0x3d, 0x5a, 0x70, 0x61, 0x3c,
  0x2d, 0x8c, 0xee, 0x3d, 0x35, 0x41, 0x7c, 0xbc, 0x89, 0xc7, 0xa6, 0x3e,
  0xab, 0xec, 0x57, 0xbe, 0xaa, 0x68, 0x32, 0x3d, 0xf9, 0x0f, 0x59, 0xbd,
  0x11, 0xc3, 0xb7, 0xbe, 0xff, 0x22, 0xd0, 0x3e, 0xf9, 0x0b, 0xf8, 0xbd,
  0x65, 0x8d, 0x88, 0xbe, 0x18, 0xfe, 0x0b, 0xbf, 0x25, 0x4c, 0x1a, 0xbe,
  0x53, 0x82, 0xa5, 0xbd, 0xc9, 0xba, 0x97, 0xbe, 0x30, 0x3b, 0x06, 0xbe,
  0xb6, 0x82, 0xac, 0xbe, 0x25, 0xeb, 0x9a, 0xbe, 0xe9, 0x73, 0x9a, 0xbd,
  0x7a, 0x1b, 0x92, 0x3e, 0xb2, 0xe5, 0xd8, 0xbd, 0xa3, 0x48, 0x42, 0x3e,
  0xb9, 0x2e, 0xda, 0x3d, 0x3b, 0x61, 0x55, 0x3d, 0xe2, 0x75, 0x4b, 0x3f,
  0x0b, 0xbb, 0x90, 0xbe, 0x99, 0xc4, 0x8c, 0xbe, 0xae, 0x5a, 0x02, 0xbf,
  0x08, 0xa3, 0x42, 0xbd, 0x4a, 0x4e, 0x13, 0xbe, 0x90, 0xc6, 0x9f, 0xbe,
  0x4b, 0xa3, 0x33, 0xbe, 0x6b, 0x36, 0x42, 0xbd, 0x2a, 0x04, 0xdd, 0x3d,
  0xd7, 0x4c, 0xbb, 0x3e, 0xf2, 0xc3, 0x80, 0x3d, 0xc0, 0xa1, 0xb4, 0x3d,
  0xd0, 0xa5, 0x8a, 0x3e, 0xc1, 0xc1, 0xe0, 0xbb, 0x22, 0x61, 0x49, 0x3c,
  0x7b, 0xfe, 0x90, 0x3e, 0xa3, 0x50, 0xf6, 0xbd, 0x57, 0x0e, 0x05, 0x3f,
  0x16, 0xdb, 0x0f, 0xbe, 0xf5, 0x81, 0xc9, 0xbd, 0x54, 0xca, 0xc2, 0xbe,
  0x9f, 0xed, 0x43, 0xbe, 0x8c, 0x6d, 0x44, 0x3e, 0x53, 0x5b, 0x0f, 0xbe,
  0x80, 0xd3, 0x1b, 0x3e, 0xea, 0x80, 0xb6, 0x3e, 0x0d, 0x72, 0xef, 0x3e,
  0x2b, 0x99, 0xf5, 0x3d, 0x8c, 0xca, 0x72, 0x3e, 0x28, 0x17, 0x30, 0x3d,
  0xa5, 0x22, 0x53, 0x3e, 0xd7, 0xfb, 0x8c, 0x3e, 0xe7, 0xd0, 0x10, 0xbe,
  0x5d, 0xa9, 0x33, 0x3e, 0x5f, 0x90, 0xb5, 0xbe, 0x0a, 0xe6, 0x36, 0xbd,
  0x39, 0xdf, 0x0a, 0xbe, 0xc6, 0x16, 0x11, 0x3e, 0x6a, 0x3f, 0xc8, 0x3e,
  0xac, 0xbd, 0xac, 0xbd, 0xec, 0x36, 0x88, 0x3e, 0x35, 0xf3, 0x92, 0x3e,
  0x66, 0x6a, 0x47, 0x3e, 0x95, 0x9d, 0xce, 0x3d, 0x0b, 0xd9, 0xae, 0x3c,
  0xf8, 0xaa, 0x3d, 0xbc, 0x5a, 0xee, 0x5c, 0xbd, 0xfb, 0xce, 0x21, 0x3f,
  0x28, 0xfd, 0x3a, 0xbe, 0x7c, 0x63, 0x9b, 0x3d, 0x0a, 0x00, 0x95, 0xbe,
  0x20, 0x02, 0x5b, 0xbd, 0x3a, 0x89, 0x01, 0xbe, 0xa4, 0x32, 0x10, 0xbe,
  0x0a, 0xb4, 0xef, 0x3d, 0xfe, 0x57, 0xb5, 0xbe, 0x52, 0x84, 0x86, 0x3e,
  0x00, 0x99, 0xa7, 0x3e, 0x18, 0xe4, 0xaf, 0x3e, 0x5c, 0x32, 0xc6, 0x3d,
  0x5c, 0xc0, 0x61, 0xbe, 0x4e, 0x99, 0xa1, 0x3d, 0xa3, 0x55, 0x93, 0xbe,
  0xf6, 0xa3, 0x1f, 0x3f, 0x9f, 0xb6, 0x03, 0xbf, 0xb9, 0x7b, 0xa5, 0xbd,
  0x77, 0x3e, 0xc3, 0xbe, 0xdb, 0x91, 0xba, 0xbe, 0xad, 0x8d, 0xe7, 0xbd,
  0xf4, 0x37, 0x8c, 0xbe, 0xdd, 0x1d, 0xfa, 0x3d, 0x97, 0x93, 0xa7, 0xbe,
  0xa7, 0x6e, 0x62, 0x3e, 0xc7, 0x93, 0x09, 0x3e, 0x43, 0x02, 0xe2, 0x3d,
  0xcc, 0xbf, 0x93, 0x3d, 0x15, 0x84, 0x95, 0xbe, 0xe7, 0x34, 0x1c, 0x3d,
  0xd3, 0x3f, 0x2e, 0x3e, 0x69, 0x0f, 0x1b, 0x3e, 0x25, 0x56, 0xe5, 0xbe,
  0x96, 0x70, 0x12, 0xbb, 0x0b, 0xe4, 0xd8, 0x3c, 0x54, 0xba, 0xdf, 0xbd,
  0x33, 0xd5, 0x96, 0xbd, 0x22, 0x74, 0x8d, 0xbe, 0x06, 0xdb, 0x90, 0x3d,
  0x65, 0xf3, 0xec, 0xbe, 0xae, 0xe5, 0xaa, 0xbd, 0x83, 0x0f, 0x20, 0x3d,
  0xa2, 0xc4, 0xb3, 0x3e, 0xb9, 0xba, 0x26, 0x3d, 0x20, 0xe2, 0x49, 0xbe,
  0xa1, 0x65, 0x1b, 0x3d, 0xd9, 0xc1, 0xec, 0x3c, 0x12, 0x20, 0x5b, 0xbe,
  0x9d, 0xc1, 0xbb, 0x3d, 0xb4, 0x44, 0x2b, 0x3e, 0x68, 0x9d, 0xa6, 0x3d,
  0x50, 0x91, 0xce, 0xbc, 0xdc, 0xb7, 0x6f, 0x3d, 0x89, 0x01, 0x45, 0x3e,
  0xa3, 0xe4, 0x2b, 0x3e, 0x73, 0x4d, 0xf3, 0x3d, 0xb2, 0x27, 0x3f, 0x3e,
  0x00, 0x0f, 0x4b, 0x3d, 0x45, 0xf7, 0x50, 0xbd, 0x90, 0x09, 0xe9, 0x3d,
  0x87, 0x4c, 0xf4, 0xbd, 0x63, 0x23, 0x00, 0x3d, 0x72, 0x09, 0x9f, 0x3d,
  0x7a, 0x77, 0xf9, 0xbc, 0x36, 0x7a, 0xec, 0x3b, 0xa3, 0xf7, 0x28, 0xbe,
  0x34, 0xbc, 0xac, 0x3d, 0x76, 0x95, 0x54, 0xbd, 0x82, 0xb0, 0xa7, 0x3d,
  0xc5, 0x42, 0xde, 0x3d, 0xf0, 0xd0, 0x1a, 0xbe, 0xf1, 0x07, 0xdc, 0x3b,
  0x88, 0x72, 0x92, 0xbe, 0xde, 0x4e, 0x7f, 0xbe, 0xbf, 0x22, 0xb9, 0xbc,
  0xbf, 0x7c, 0x27, 0xbd, 0x78, 0xf9, 0x98, 0xbe, 0x32, 0xdd, 0xb5, 0x3b,
  0x3c, 0x05, 0x4c, 0xbc, 0xf0, 0x1e, 0xc5, 0x3d, 0x1d, 0x25, 0xca, 0xbc,
  0xe6, 0xfc, 0x38, 0x3d, 0x7c, 0x9c, 0x02, 0xbb, 0xc1, 0xe3, 0x81, 0x3c,
  0x12, 0xee, 0xa9, 0xbd, 0xfc, 0x56, 0xb9, 0x3c, 0x12, 0xf4, 0x10, 0xbe,
  0x5b, 0xcf, 0x97, 0x3c, 0x96, 0xd2, 0x68, 0xbd, 0xea, 0x02, 0x51, 0xbe,
  0x65, 0x91, 0xc6, 0xbd, 0xd2, 0xcc, 0x45, 0xbd, 0xaf, 0x54, 0x61, 0xbd,
  0xc4, 0x9b, 0x6e, 0x3c, 0x54, 0xd8, 0x80, 0x3d, 0xd5, 0x70, 0x1d, 0xbd,
  0x09, 0x7a, 0x50, 0x3c, 0x9d, 0xbc, 0x3a, 0xbe, 0x2b, 0x1f, 0x0f, 0x3d,
  0x3f, 0x2a, 0xff, 0x3b, 0xe9, 0x8a, 0x1f, 0xbd, 0x9a, 0x76, 0x6b, 0xbe,
  0x00, 0x60, 0xee, 0xbd, 0xa8, 0x6c, 0x4f, 0x3d, 0x45, 0xf9, 0xb2, 0xbe,
  0x28, 0xf5, 0x92, 0xbe, 0xe6, 0x08, 0xc2, 0x3c, 0x81, 0x5c, 0xef, 0xbc,
  0xe4, 0x22, 0x5e, 0x3d, 0x23, 0x15, 0x75, 0xbd, 0xea, 0x83, 0x39, 0xbd,
  0xb9, 0x69, 0xed, 0xbd, 0xa6, 0xb3, 0xf3, 0x3d, 0x11, 0x0b, 0x54, 0x3e,
  0x49, 0x00, 0x0a, 0x3d, 0x10, 0xdc, 0x89, 0x3d, 0xef, 0x4e, 0xb5, 0x3e,
  0x60, 0xae, 0x83, 0xbd, 0x4b, 0x79, 0x2d, 0x3e, 0x1a, 0x12, 0x63, 0x3d,
  0x99, 0x44, 0xff, 0xbd, 0x37, 0x1a, 0x48, 0xbe, 0xcc, 0x3a, 0x2f, 0x3d,
  0xee, 0xa3, 0xcd, 0xbc, 0xf0, 0x59, 0x87, 0x3e, 0x6c, 0xf8, 0xcc, 0xbd,
  0xd1, 0x85, 0x6a, 0x3d, 0xad, 0x42, 0x66, 0xbc, 0xe6, 0xd9, 0xec, 0x3d,
  0x42, 0x12, 0x24, 0x3e, 0x37, 0x9f, 0x7e, 0x3b, 0x11, 0x0c, 0xe5, 0x3d,
  0x8a, 0x8d, 0xa4, 0x3e, 0xa5, 0x65, 0x7c, 0x3c, 0x88, 0x3b, 0xb8, 0x3d,
  0xb9, 0x05, 0xaa, 0x3d, 0x21, 0x34, 0xaa, 0x3c, 0x50, 0x10, 0xc1, 0xbc,
  0xf6, 0xe1, 0x83, 0x3d, 0x9f, 0x4a, 0xa3, 0xbc, 0xdb, 0xb0, 0x30, 0x3e,
  0x10, 0x8e, 0x9d, 0xbc, 0x61, 0x1c, 0x40, 0x3a, 0x0a, 0x30, 0x4f, 0xbd,
  0xa4, 0x66, 0x72, 0x3d, 0xb1, 0xc0, 0xeb, 0xbd, 0x3b, 0x29, 0xbc, 0xbb,
  0x2e, 0x36, 0xd2, 0xbb, 0xbf, 0x89, 0x6e, 0xbc, 0x96, 0xda, 0xd0, 0x3d,
  0x29, 0xe5, 0xef, 0xbb, 0xe8, 0x22, 0xcd, 0x3d, 0x51, 0x39, 0x2e, 0xbc,
  0xff, 0xcd, 0x18, 0xbb, 0x06, 0x7f, 0x98, 0xbd, 0xee, 0x15, 0x84, 0xbc,
  0x56, 0x6f, 0x93, 0x3e, 0x51, 0xcd, 0x8e, 0xbe, 0xb8, 0xdd, 0xfb, 0xbd,
  0xae, 0xdd, 0x34, 0x3e, 0xbe, 0x04, 0xe6, 0xbc, 0x52, 0x58, 0xcc, 0x3d,
  0xd3, 0x7a, 0x0d, 0xbe, 0x41, 0xba, 0x21, 0x3d, 0x35, 0x75, 0x02, 0x3e,
  0xa8, 0x45, 0x9b, 0xbd, 0xf9, 0x4e, 0x5d, 0xbe, 0xf7, 0xff, 0xdf, 0xbd,
  0x12, 0x39, 0x8a, 0xbd, 0xa0, 0xf1, 0xd4, 0xbd, 0xcd, 0x02, 0x32, 0xbe,
  0x54, 0x55, 0x97, 0xbe, 0x85, 0x84, 0xd8, 0x3d, 0xac, 0x43, 0xb7, 0x3d,
  0x01, 0x3e, 0x30, 0xbe, 0xa7, 0x23, 0xf2, 0xbd, 0x49, 0xec, 0x4b, 0xbd,
  0x62, 0x2f, 0xea, 0xbd, 0xaf, 0x99, 0xb5, 0xbc, 0x2a, 0x3e, 0x3b, 0x3e,
  0xf1, 0xfc, 0xcd, 0x3d, 0xb2, 0xf3, 0x7c, 0xbe, 0xd4, 0x5f, 0x3a, 0x3e,
  0x8b, 0xaf, 0x0f, 0xbe, 0x80, 0xdc, 0x46, 0xbe, 0x57, 0x64, 0x55, 0x3c,
  0xa2, 0x26, 0x5b, 0xbe, 0x18, 0xe9, 0x49, 0xbd, 0x72, 0xbc, 0x18, 0xb8,
  0xdd, 0x7e, 0xd4, 0xbd, 0x90, 0x79, 0x3b, 0x3e, 0x5a, 0x3f, 0xcf, 0x3b,
  0x37, 0xc6, 0xc5, 0x3d, 0x4f, 0xe6, 0xd0, 0xbd, 0xa3, 0x16, 0x01, 0x3e,
  0x8a, 0x5a, 0x7c, 0xbd, 0x1f, 0x5c, 0x9d, 0x3d, 0x93, 0x56, 0x0f, 0x3e,
  0x2e, 0x4f, 0x20, 0x3e, 0xef, 0x4b, 0xfe, 0xbd, 0xd1, 0x29, 0x98, 0x3d,
  0xfc, 0x1d, 0xb0, 0xbd, 0x38, 0x3b, 0x2c, 0x3e, 0xdd, 0x5b, 0x81, 0xbe,
  0x43, 0x4e, 0xc3, 0xbd, 0x54, 0x2a, 0xb9, 0xbd, 0x70, 0x02, 0x40, 0xbd,
  0x2c, 0xab, 0x24, 0xbd, 0x4b, 0xec, 0x69, 0xbe, 0x80, 0x73, 0xb2, 0x3d,
  0xf3, 0xe0, 0x31, 0xbe, 0x81, 0x1c, 0xc8, 0xbd, 0xbf, 0x91, 0x3f, 0xbe,
  0x9a, 0x7b, 0x6c, 0xbd, 0x65, 0x34, 0x37, 0xbe, 0x60, 0x96, 0x0e, 0xbe,
  0x76, 0xab, 0x93, 0xbd, 0x8f, 0x57, 0x23, 0xbe, 0xff, 0xde, 0x8a, 0x3d,
  0x23, 0x1f, 0xa4, 0xbe, 0x59, 0x49, 0x99, 0x3d, 0xad, 0x04, 0xc9, 0x3d,
  0xd9, 0x40, 0xf3, 0x3d, 0x5a, 0xf2, 0x79, 0xbc, 0x70, 0x75, 0xea, 0x3d,
  0x41, 0xb7, 0x6b, 0xbe, 0x8f, 0x84, 0x37, 0x3d, 0x57, 0xc0, 0x1d, 0x3c,
  0x28, 0xc7, 0x77, 0xbe, 0xbf, 0xbc, 0xfc, 0xbd, 0xde, 0x48, 0xfa, 0x3a,
  0xc4, 0x35, 0x08, 0x3e, 0xe5, 0xa9, 0x83, 0x3d, 0xee, 0x7e, 0x18, 0x3c,
  0xcc, 0x30, 0x44, 0xbe, 0x8a, 0x75, 0x92, 0xbe, 0x5a, 0x79, 0x5d, 0xbe,
  0x93, 0xd2, 0xc5, 0x3d, 0xbb, 0x2e, 0x03, 0x3e, 0xd7, 0x4e, 0x2f, 0x3e,
  0x6f, 0x6f, 0xff, 0xbb, 0x8f, 0xd8, 0x39, 0xbe, 0x53, 0x36, 0x8d, 0xbe,
  0xe1, 0x74, 0x2a, 0xbe, 0x40, 0x76, 0x97, 0xbc, 0x8a, 0x73, 0xda, 0xbc,
  0xef, 0x29, 0x58, 0x3d, 0x06, 0xfb, 0x5c, 0x3c, 0x61, 0xf5, 0x7c, 0xbc,
  0xbf, 0xaf, 0x86, 0xbe, 0x4e, 0x53, 0xd7, 0xbd, 0x6f, 0x0b, 0x6b, 0xbd,
  0xfa, 0x14, 0xa6, 0xbd, 0x55, 0x81, 0x0e, 0xbe, 0xbc, 0xc8, 0x68, 0xbe,
  0x55, 0x43, 0x82, 0xbd, 0x54, 0x36, 0xfc, 0xbd, 0xb1, 0x3c, 0x56, 0xbe,
  0xbb, 0x26, 0xd4, 0xbc, 0x86, 0xbb, 0x4b, 0xbe, 0x69, 0xe1, 0x37, 0xbe,
  0x38, 0xbd, 0x07, 0xbe, 0xcc, 0xd6, 0xc6, 0xbc, 0x7f, 0xb0, 0x62, 0x3d,
  0xed, 0x0f, 0x67, 0xbe, 0x37, 0x64, 0x64, 0x3d, 0x51, 0xdb, 0xd2, 0x3d,
  0xb8, 0x51, 0x2f, 0xbe, 0xc5, 0x9b, 0xea, 0xbd, 0x6c, 0xab, 0xe7, 0x3c,
  0x60, 0xda, 0xa1, 0xbc, 0xa8, 0x8d, 0x6d, 0xbe, 0x99, 0x69, 0x24, 0x3e,
  0xbf, 0xf4, 0x94, 0x3e, 0x80, 0xb3, 0x8f, 0xbd, 0xc6, 0xdd, 0x7d, 0xbe,
  0x09, 0xf9, 0xc4, 0x3e, 0x79, 0x52, 0x81, 0x3d, 0x3f, 0x7a, 0xbf, 0x3e,
  0x0f, 0x00, 0xa2, 0x3c, 0x2e, 0xd3, 0x75, 0x3d, 0xd6, 0xea, 0x68, 0x3e,
  0xfd, 0x73, 0xcb, 0xbd, 0xbf, 0x6e, 0x46, 0xbd, 0xae, 0xb5, 0x57, 0x3e,
  0x1f, 0x6f, 0x77, 0xbe, 0x15, 0xa9, 0x02, 0x3c, 0xc3, 0xf0, 0x7d, 0xbc,
  0x16, 0x35, 0x45, 0x3e, 0xf8, 0xde, 0x7d, 0xbd, 0x98, 0x08, 0xb5, 0x3d,
  0xbf, 0x7f, 0x5e, 0xbe, 0x89, 0x82, 0xdf, 0x3d, 0x1c, 0x62, 0x7b, 0xbd,
  0x3c, 0xc6, 0x37, 0x3e, 0x8e, 0xca, 0x7f, 0x3e, 0x13, 0x04, 0x31, 0x3d,
  0xb2, 0xfa, 0x68, 0x3d, 0x0c, 0x0e, 0x8f, 0xbe, 0x7e, 0xc3, 0x03, 0xbd,
  0x0b, 0xcc, 0xcd, 0xbe, 0x1e, 0xb7, 0x08, 0x3d, 0xb8, 0xf3, 0x65, 0xbe,
  0x50, 0x30, 0xaf, 0xbd, 0xa9, 0x8b, 0x1c, 0xbe, 0x58, 0x94, 0x8e, 0xbe,
  0xa4, 0x92, 0x40, 0x3d, 0x75, 0x53, 0x1c, 0xbd, 0xbc, 0x0e, 0x0d, 0x3e,
  0x3d, 0x68, 0x03, 0xbe, 0x2d, 0x60, 0x59, 0x3c, 0x65, 0x33, 0xda, 0xbe,
  0xbe, 0x7c, 0x2e, 0xbe, 0xf2, 0x5c, 0xae, 0xbe, 0x64, 0xce, 0x76, 0xbe,
  0xa7, 0xf5, 0x3c, 0xbe, 0x42, 0x88, 0x5c, 0x3c, 0xa9, 0xe6, 0xbf, 0xbd,
  0xc0, 0x7f, 0x9b, 0xbe, 0x2e, 0x93, 0x78, 0xbe, 0x88, 0x8f, 0x80, 0xbe,
  0xd9, 0x8a, 0x8f, 0xbb, 0xde, 0x87, 0xa5, 0xbe, 0x03, 0x8e, 0x4b, 0xbe,
  0xe1, 0x0f, 0x0a, 0x3e, 0xcf, 0x1e, 0x5a, 0xbe, 0x94, 0x15, 0xb0, 0xbd,
  0xa0, 0xb0, 0x35, 0xbe, 0xe4, 0x72, 0xa4, 0xbe, 0x3f, 0x28, 0xe8, 0xbe,
  0x13, 0x1f, 0xb5, 0xbe, 0x3d, 0xb3, 0x66, 0xbd, 0xb5, 0xd3, 0xc0, 0xbe,
  0xae, 0xff, 0x16, 0xbe, 0x2f, 0x71, 0xd4, 0x3c, 0xe6, 0x72, 0xcd, 0x3d,
  0xae, 0x50, 0x95, 0xbd, 0x34, 0xf5, 0xb7, 0xbd, 0x30, 0x36, 0x95, 0xbe,
  0x6f, 0xe3, 0x85, 0xbd, 0xd5, 0x73, 0x66, 0xbe, 0x27, 0x7e, 0xc8, 0xbe,
  0xfd, 0x8e, 0x4c, 0xbe, 0xb1, 0x35, 0x96, 0xbe, 0xe6, 0xab, 0x4d, 0xbe,
  0x83, 0x94, 0x70, 0xbe, 0xa7, 0x19, 0xa1, 0xbe, 0xdc, 0x2a, 0x6a, 0xbd,
  0x18, 0x20, 0x6f, 0xbe, 0x68, 0x5e, 0x77, 0xbe, 0x74, 0x57, 0x13, 0x3e,
  0xbb, 0x36, 0x22, 0xbd, 0x8d, 0x5a, 0x08, 0xbe, 0x61, 0xf1, 0x7b, 0xbd,
  0x6d, 0xb5, 0xf6, 0x3a, 0x81, 0xff, 0x18, 0x3c, 0xe8, 0x2f, 0x14, 0xbe,
  0xa6, 0xbb, 0x84, 0xbe, 0x39, 0xf2, 0xdd, 0xbd, 0x3a, 0xcf, 0x12, 0xbe,
  0xc3, 0x25, 0xba, 0xbe, 0x68, 0xe2, 0x12, 0xbe, 0x39, 0xf7, 0x97, 0x3e,
  0x30, 0x91, 0x2d, 0xbd, 0x9f, 0x17, 0x98, 0x3e, 0x24, 0x16, 0xab, 0xbe,
  0xbc, 0x4f, 0x98, 0xbe, 0x9a, 0x65, 0xc6, 0x3c, 0x6b, 0x51, 0x44, 0x3e,
  0xbe, 0x33, 0x1c, 0x3e, 0xf2, 0xe6, 0x0c, 0xbd, 0x30, 0x8f, 0xc4, 0xbd,
  0xad, 0x43, 0x10, 0x3e, 0xd1, 0xa2, 0xf3, 0xbc, 0x79, 0x2b, 0x00, 0x3e,
  0x44, 0xf9, 0x7a, 0x3e, 0xb5, 0x02, 0x7f, 0x3e, 0xf0, 0x77, 0x46, 0xbd,
  0xd7, 0x72, 0x3b, 0x3d, 0x8e, 0x2c, 0x77, 0x3c, 0x7c, 0x88, 0xbe, 0x3e,
  0x66, 0xfd, 0xff, 0xff, 0x10, 0x00, 0x00, 0x00, 0x07, 0x00, 0x00, 0x00,
  0x14, 0x00, 0x00, 0x00, 0x2c, 0x00, 0x00, 0x00, 0x02, 0x00, 0x00, 0x00,
  0x10, 0x00, 0x00, 0x00, 0x70, 0x00, 0x00, 0x00, 0x17, 0x00, 0x00, 0x00,
  0x73, 0x65, 0x71, 0x75, 0x65, 0x6e, 0x74, 0x69, 0x61, 0x6c, 0x2f, 0x64,
  0x65, 0x6e, 0x73, 0x65, 0x2f, 0x4d, 0x61, 0x74, 0x4d, 0x75, 0x6c, 0x00,
  0xd0, 0xfc, 0xff, 0xff, 0xda, 0xfd, 0xff, 0xff, 0x04, 0x00, 0x00, 0x00,
  0x08, 0x00, 0x00, 0x00, 0xff, 0xff, 0xff, 0xff, 0x70, 0x00, 0x00, 0x00,
  0x00, 0x00, 0x0e, 0x00, 0x18, 0x00, 0x08, 0x00, 0x07, 0x00, 0x0c, 0x00,
  0x10, 0x00, 0x14, 0x00, 0x0e, 0x00, 0x00, 0x00, 0x00, 0x00, 0x00, 0x02,
  0x10, 0x00, 0x00, 0x00, 0x06, 0x00, 0x00, 0x00, 0x10, 0x00, 0x00, 0x00,
  0x2c, 0x00, 0x00, 0x00, 0x01, 0x00, 0x00, 0x00, 0x02, 0x00, 0x00, 0x00,
  0x18, 0x00, 0x00, 0x00, 0x73, 0x65, 0x71, 0x75, 0x65, 0x6e, 0x74, 0x69,
  0x61, 0x6c, 0x2f, 0x66, 0x6c, 0x61, 0x74, 0x74, 0x65, 0x6e, 0x2f, 0x43,
  0x6f, 0x6e, 0x73, 0x74, 0x00, 0x00, 0x00, 0x00, 0x38, 0xfd, 0xff, 0xff,
  0x42, 0xfe, 0xff, 0xff, 0x04, 0x00, 0x00, 0x00, 0x0c, 0x00, 0x00, 0x00,
  0xd7, 0x9e, 0xa3, 0x3f, 0x05, 0x0a, 0x8c, 0xc0, 0x43, 0xe1, 0xc0, 0x3f,
  0x26, 0xfe, 0xff, 0xff, 0x10, 0x00, 0x00, 0x00, 0x05, 0x00, 0x00, 0x00,
  0x10, 0x00, 0x00, 0x00, 0x44, 0x00, 0x00, 0x00, 0x01, 0x00, 0x00, 0x00,
  0x03, 0x00, 0x00, 0x00, 0x32, 0x00, 0x00, 0x00, 0x73, 0x65, 0x71, 0x75,
  0x65, 0x6e, 0x74, 0x69, 0x61, 0x6c, 0x2f, 0x64, 0x65, 0x6e, 0x73, 0x65,
  0x5f, 0x31, 0x2f, 0x42, 0x69, 0x61, 0x73, 0x41, 0x64, 0x64, 0x2f, 0x52,
  0x65, 0x61, 0x64, 0x56, 0x61, 0x72, 0x69, 0x61, 0x62, 0x6c, 0x65, 0x4f,
  0x70, 0x2f, 0x72, 0x65, 0x73, 0x6f, 0x75, 0x72, 0x63, 0x65, 0x00, 0x00,
  0xa8, 0xfd, 0xff, 0xff, 0xb2, 0xfe, 0xff, 0xff, 0x04, 0x00, 0x00, 0x00,
  0x40, 0x00, 0x00, 0x00, 0x7f, 0xd9, 0xc7, 0xbe, 0x30, 0x8b, 0x78, 0xbb,
  0x1b, 0xe5, 0x79, 0xbe, 0xda, 0x6e, 0x58, 0xbf, 0x73, 0xe4, 0x69, 0xbf,
  0x00, 0x67, 0x2e, 0xbe, 0x3f, 0xb5, 0x0b, 0xbf, 0xd8, 0x98, 0x99, 0xbf,
  0x23, 0xab, 0x20, 0xbe, 0x7c, 0x6c, 0x36, 0xbe, 0x3c, 0x7a, 0x0d, 0xbf,
  0x9f, 0x2f, 0xa3, 0xbe, 0x16, 0x70, 0xcc, 0xbb, 0x2e, 0x4f, 0x23, 0xc0,
  0x76, 0xce, 0xca, 0xbd, 0xa1, 0x0f, 0x9d, 0xbe, 0xca, 0xfe, 0xff, 0xff,
  0x10, 0x00, 0x00, 0x00, 0x04, 0x00, 0x00, 0x00, 0x10, 0x00, 0x00, 0x00,
  0x44, 0x00, 0x00, 0x00, 0x01, 0x00, 0x00, 0x00, 0x10, 0x00, 0x00, 0x00,
  0x30, 0x00, 0x00, 0x00, 0x73, 0x65, 0x71, 0x75, 0x65, 0x6e, 0x74, 0x69,
  0x61, 0x6c, 0x2f, 0x64, 0x65, 0x6e, 0x73, 0x65, 0x2f, 0x42, 0x69, 0x61,
  0x73, 0x41, 0x64, 0x64, 0x2f, 0x52, 0x65, 0x61, 0x64, 0x56, 0x61, 0x72,
  0x69, 0x61, 0x62, 0x6c, 0x65, 0x4f, 0x70, 0x2f, 0x72, 0x65, 0x73, 0x6f,
  0x75, 0x72, 0x63, 0x65, 0x00, 0x00, 0x00, 0x00, 0x4c, 0xfe, 0xff, 0xff,
  0x56, 0xff, 0xff, 0xff, 0x04, 0x00, 0x00, 0x00, 0x40, 0x00, 0x00, 0x00,
  0x06, 0x5c, 0xa3, 0xbc, 0xe8, 0x34, 0x9e, 0xbf, 0xae, 0x84, 0x80, 0xbc,
  0x5c, 0xe9, 0xa5, 0xbf, 0x2b, 0xfd, 0x55, 0xbf, 0xa7, 0xeb, 0x85, 0xbf,
  0x2e, 0xdd, 0xc2, 0xbf, 0x1f, 0x34, 0xb6, 0xbf, 0xdf, 0xc4, 0x05, 0xbf,
  0x02, 0x3b, 0x58, 0xbf, 0x76, 0xaa, 0xd0, 0xbf, 0x29, 0x36, 0x77, 0xbf,
  0xb6, 0xee, 0x93, 0xba, 0xe4, 0x54, 0x1f, 0xbd, 0x47, 0x82, 0xc7, 0x3c,
  0xb3, 0x3e, 0xb7, 0xbe, 0x6e, 0xff, 0xff, 0xff, 0x10, 0x00, 0x00, 0x00,
  0x03, 0x00, 0x00, 0x00, 0x10, 0x00, 0x00, 0x00, 0x48, 0x00, 0x00, 0x00,
  0x01, 0x00, 0x00, 0x00, 0x10, 0x00, 0x00, 0x00, 0x33, 0x00, 0x00, 0x00,
  0x73, 0x65, 0x71, 0x75, 0x65, 0x6e, 0x74, 0x69, 0x61, 0x6c, 0x2f, 0x63,
  0x6f, 0x6e, 0x76, 0x32, 0x64, 0x5f, 0x31, 0x2f, 0x42, 0x69, 0x61, 0x73,
  0x41, 0x64, 0x64, 0x2f, 0x52, 0x65, 0x61, 0x64, 0x56, 0x61, 0x72, 0x69,
  0x61, 0x62, 0x6c, 0x65, 0x4f, 0x70, 0x2f, 0x72, 0x65, 0x73, 0x6f, 0x75,
  0x72, 0x63, 0x65, 0x00, 0x04, 0x00, 0x06, 0x00, 0x04, 0x00, 0x00, 0x00,
  0x00, 0x00, 0x06, 0x00, 0x08, 0x00, 0x04, 0x00, 0x06, 0x00, 0x00, 0x00,
  0x04, 0x00, 0x00, 0x00, 0x20, 0x00, 0x00, 0x00, 0xb8, 0xe2, 0x1c, 0xc0,
  0x9d, 0xb0, 0x81, 0xbf, 0xc3, 0x42, 0x86, 0xbf, 0xed, 0xaf, 0xcd, 0xbf,
  0x46, 0x92, 0xca, 0xbf, 0xc3, 0x90, 0xef, 0xbd, 0xaf, 0x2d, 0x0a, 0xbf,
  0xea, 0x7b, 0xc2, 0xbf, 0x00, 0x00, 0x0e, 0x00, 0x14, 0x00, 0x04, 0x00,
  0x00, 0x00, 0x08, 0x00, 0x0c, 0x00, 0x10, 0x00, 0x0e, 0x00, 0x00, 0x00,
  0x10, 0x00, 0x00, 0x00, 0x02, 0x00, 0x00, 0x00, 0x10, 0x00, 0x00, 0x00,
  0x44, 0x00, 0x00, 0x00, 0x01, 0x00, 0x00, 0x00, 0x08, 0x00, 0x00, 0x00,
  0x31, 0x00, 0x00, 0x00, 0x73, 0x65, 0x71, 0x75, 0x65, 0x6e, 0x74, 0x69,
  0x61, 0x6c, 0x2f, 0x63, 0x6f, 0x6e, 0x76, 0x32, 0x64, 0x2f, 0x42, 0x69,
  0x61, 0x73, 0x41, 0x64, 0x64, 0x2f, 0x52, 0x65, 0x61, 0x64, 0x56, 0x61,
  0x72, 0x69, 0x61, 0x62, 0x6c, 0x65, 0x4f, 0x70, 0x2f, 0x72, 0x65, 0x73,
  0x6f, 0x75, 0x72, 0x63, 0x65, 0x00, 0x00, 0x00, 0x90, 0xff, 0xff, 0xff,
  0x14, 0x00, 0x18, 0x00, 0x04, 0x00, 0x00, 0x00, 0x08, 0x00, 0x0c, 0x00,
  0x10, 0x00, 0x00, 0x00, 0x00, 0x00, 0x14, 0x00, 0x14, 0x00, 0x00, 0x00,
  0x14, 0x00, 0x00, 0x00, 0x01, 0x00, 0x00, 0x00, 0x20, 0x00, 0x00, 0x00,
  0x44, 0x00, 0x00, 0x00, 0x2c, 0x00, 0x00, 0x00, 0x04, 0x00, 0x00, 0x00,
  0x01, 0x00, 0x00, 0x00, 0x40, 0x00, 0x00, 0x00, 0x03, 0x00, 0x00, 0x00,
  0x01, 0x00, 0x00, 0x00, 0x0c, 0x00, 0x00, 0x00, 0x63, 0x6f, 0x6e, 0x76,
  0x32, 0x64, 0x5f, 0x69, 0x6e, 0x70, 0x75, 0x74, 0x00, 0x00, 0x00, 0x00,
  0x04, 0x00, 0x00, 0x00, 0xff, 0xff, 0xff, 0xff, 0x40, 0x00, 0x00, 0x00,
  0x03, 0x00, 0x00, 0x00, 0x01, 0x00, 0x00, 0x00, 0xfc, 0xff, 0xff, 0xff,
  0x04, 0x00, 0x04, 0x00, 0x04, 0x00, 0x00, 0x00
};
unsigned int model_tflite_len = 13052;

